bca08236
bde0c38a
3c2aebc8
be1a77de
bcd0198a
3d80cdda
be28c33b
bd7042a0
3d55a9b4
bd0805a8
3c1702be
3dc98d3f
be039ff0
be2ef8cf
be031d28
3cc02e52
bcc496a1
bdaadfbf
bde39e44
bd60baa3
be35ad08
3e0b8f42
be2ec61b
3da802ba
bdf8f2fa
3d79a773
be02bbb9
bddcc137
3c8fa1af
3d6c70c9
be119599
3cb1d563
be37e736
3c3ce899
bdb5818a
3d166dba
bde9a069
3c3febe6
3e0a20cf
3ce4be9b
be347797
bc2152ca
be0db1bd
3d452b7e
3c751939
3dc3c205
bdc46430
3e023359
bd8c1c8a
bbcad94b
3db94cf7
3e4529c2
bdc77dd1
bb7b81a0
3e0df28e
bde6d568
be130a19
3dfa1adc
3d0be50f
3dfeaa54
be039c4b
be0a48b3
3e12d2e5
3da0610a
3de94611
bde04607
3e0e4791
3e2f34de
bdc66ccb
3c010e6e
3cf7ca91
bca60f7e
3e11fb95
3dd1bfce
be3dfd5f
bbcd43c7
3d25c832
3c7ca91e
3ae10129
be09d94e
be3aff82
bd66047f
3e23a52f
bdefe57f
3e05cc0a
be22ea1f
bd5f7b87
bc90be29
be0d5791
be4e7da5
3da70502
3da69bbf
be36c0a0
3db2258a
3df55f2c
3df2ac1b
3e3e0249
bc1d1d14
be09ad6e
bd020c3a
3e246d18
3e3494f0
3e1eefe7
3c5c2798
bd694718
3cfaa702
bd5aba7e
3cfcdbce
3c39ae4e
be18a1f9
3dc12b03
3c74af3f
3cd295af
3e2bc751
3c556b92
3df40af8
be136595
3da773bb
bd839a33
3e41f082
bcdb1bfa
be270959
be2116a5
3d316e50
be330855
be11437e
3e25c0eb
3e36e996
3d932474
3de28bb6
be266430
3e0ff7fa
3ce3de2b
3e45e1c7
3e0ed87b
bd8d20ab
3e1dc518
bdd60695
be1abfa3
bdd8819b
3dd06c45
bda5ae43
bd604d4a
bcbd6620
be0342b2
bd9a38ed
3d7d0a92
3ddcfc73
bd3bc696
bc782d93
bdb350f7
be215454
bdf59a29
3e1dffc7
3dd878cb
3d80abb9
3d8342c4
bd8c69ac
bd8d6314
be0c8802
be118f26
bd8606fc
bd4882a3
bdcfc971
3d869497
be15ff65
bde73db4
be5a3da5
bdb0ec6f
3c3169c4
be18da42
bdb5f3b1
be1f0d86
3de40297
bd0e1d7b
3d05a38a
be1b09c4
bdce8e9f
3dbc87ef
3e3bb3b1
bcd91135
3d257895
bdd91399
be0ac54c
bc21fd5c
bd7ea749
bd874441
3e1b707f
3e12bc5c
3dedfdbf
bd86aaa9
3cc2b1fa
bdfd2245
3de8fa6b
3d4c65fc
3d1a563c
3d07e61c
3da962d9
bdde6047
bd9fc3f3
3df6cebc
3d5f6b47
bdfe7892
bd4c4483
3cdefbee
3dfb5479
3e2b66fb
bd1868ee
be15a51b
3d4a279e
be2f8154
bbea19da
bd935cd1
3d9f7712
bc6feddb
3e22aa62
be14848c
bc79a499
bdd8e764
bcc45602
bb55c72e
3d69fdd7
3d678d88
bdac3476
be025a5e
3c4d1393
be2d298e
3dfe84ce
3deab054
be0617e0
bde4ae6b
bdd71934
bc12a24b
3dffaeb2
bcb54153
3d04a26a
bd85ec9a
bdda8f7d
bddd68c2
bdd390fd
3cd69007
be331e25
be3095f2
bb9b50ff
bd21360e
bd4b46b0
bd20611b
3d3b87ba
3d345eda
bdc0f657
be027c90
bd3323a3
bd42abb8
be4e54dc
3e17e4b1
3deb55c7
be22f92b
3e4b94f7
bb9ef6b4
bc33d3c6
3e1b9c27
3e2385b8
bd8a4af2
3e595f72
bde2dbc8
bda5b147
3d7f6690
bdf177fd
3d9b3169
bd8c58b7
bcbf2beb
bdaaaeb4
3e16dc18
bc332e5d
3d193565
bcbeddef
3e11c11d
3dc8c79f
bcd04243
3e125d6a
3da74117
3d4c32e8
bce50c21
3c3c0f2d
bdff527b
3ddc573f
3e0b0dca
be4dc0de
3d9de346
be2b4d3a
3cdd6693
3dca9f6b
3da4147f
3d8e38fe
3e02a274
be196c62
bbb8d346
be12e534
3e2541cf
bdd0ac96
bd664524
3d913572
bceb4129
bcbdd571
3e018a87
3dec1b88
3bd2da1e
3de62400
bcf40062
bdf196a5
3d94a986
3de14f1a
bdac2089
3b1f9611
be19e70d
3d7c74cb
3dc76a68
3dab8de4
bd97f024
bc70e9a9
3cf83dc1
bd14816e
be3c79de
be1c28ab
bd8c9654
3d2feac0
3cfd15de
3e5ed3cf
be09c19b
bd2c315b
3df14ed2
3d9bf5f7
bd3eec3b
3db496c7
3e292c56
3e24bfa7
bdc0b250
3cff8fb4
be5aa3c9
bc7d7cab
3e32e6da
3d914f83
bdb0fc19
3d48e967
3d6c3e09
bc7f580a
3e487f14
be29ba27
bd276c38
3dfa9870
3e3adacd
3d51fc6f
3dce3cab
3db8e6a6
3dcadc52
be145dbc
be10cd3c
3c9a64cb
3e138f7b
3e10cf19
bdfc29ca
bd919ada
3b9aac33
bd1089e1
3e24033d
3bd4b472
3db56be5
bdd74d69
bdaa4d21
3db6508e
3e5d1226
3ce420b6
be07ca4e
3c95063a
be447997
bcfebd0e
3d66ec80
3db2589a
3d03833e
3c9c8b48
3d546ee7
bd555507
3e07b144
3e2591a5
3dd00faf
be2a1e44
3e33c1f8
bd64f14f
3c8cbacd
3e2c9806
bda183da
3e01caff
be41b32b
be1dc10e
3e4f5f8b
38ad39c5
be3bcc0f
be207fb1
3d103232
bdbb406e
3e0ae24e
3e0caf22
b9d059cd
3e2e2f65
3d3db33f
3c050230
bd4610f1
bdaba34e
3df1d6cc
3e24f734
3d736828
3d0b5175
3da5d6fe
3e10616f
bd5c4ddc
bdb46a73
bccdc084
3cf6349d
3e4d9ba7
bd9d90ed
3cd2ac59
be5731d0
be496dc4
bce312be
bdde5ae7
3dfc7f9e
bd23a07b
3e08952f
bda71e3f
3dc07bac
bd277c2d
3dd561ed
bc1ca662
be0e7330
3bc012af
3dd6b9bf
3ce84d35
bca9493c
3e2ac07f
3d54bbc3
bd55a1b7
bd43de00
bdfd44a9
be0e1bf9
be6e5bd1
3d5cda3c
3d6de7bb
bd537eb0
3d960339
be12f89b
bdb55fca
bd84f135
be375bef
3dac6295
bd9e3239
3e3b9c2f
be290c00
3e3eb466
bd3419d6
bc257203
be0cd800
3d8606de
bc8de3d7
3cb40d04
bd053303
3e2e0495
bded5d06
3db6261a
3c3b6f2a
bc889315
3ba7ff32
3e2d9817
bd80a54a
bd91b6e5
bda14a4a
bcd19caa
be30c24e
bcd4c80b
3e3d97d1
3cdf4884
3db3be88
bd8b099c
bd994093
3dd61dc8
3e292c53
3e32a15a
be317ac6
bdf04f65
be1095c1
3e35beeb
3d7a6ddc
3b1aadfe
3d9737ba
bd945642
be4a9280
3d9c7441
3e3a5624
3e0e15f5
3de9530c
3e152742
3c0e6c15
be15c6ea
3bba968f
be453b8c
be282d3f
bdced737
bd5b9629
3e0d3391
bdbfe97d
bd651816
3e062ab8
be17974b
bb8048e8
3d6ecdd8
3e0da2cb
bd582fe5
bdcd2c90
3d57c5b2
3e374fcb
bde030f8
bbbf2b63
bcdee10e
be0d2fdb
3e2276e5
3e0afd0b
3decf491
3e0cad32
bd83bab2
3d710d4a
bc12a7d1
3e0a54c3
3e105dd3
3d00aaf4
3d9e1b0c
3e226c88
3e0dd99f
3dce277c
bd0903c9
bd95cfa2
3d95c7d1
bddb2001
3cb046de
bda0fb4b
3df98bee
3d27af01
3e2582ea
3e4862bf
bd80d581
3d39bf60
3dfa0060
bd81daf5
3d17ac46
3e12248f
bdd39b2b
bcc2209e
3e061320
3cd8c458
3e112b72
be2b8257
3e4ca1e6
bddc7368
be10625f
bdb90ba2
3d56776f
bdf2a79b
bdd973e1
bd8c9918
3d4b6e3f
3e1699a7
3e0129be
3e1d83df
be0eaf7a
be145d07
be2c7342
be0940a1
3e1048af
3d1305ab
be033f0a
3e40f420
3d970cec
bd018175
bd11010b
3e02d430
3c72b7d4
3e34086e
3d0c0c84
bc862b1b
3d795792
bdac11fe
bdc2a0b5
3c5dfdd5
bd939012
3d8b2a67
bdb9edc8
3d98c923
3de6a021
ba38a712
3d269507
bd8a4095
be436e0f
bdf6596c
bd0d290b
be13a605
3d7d6966
bc18a761
3c80e772
3d69529c
be3c14bd
3d018c54
bdf0100a
3d17e2a7
be2319dc
be19b35a
bdfd7850
bc9f64a0
3c8b888d
3e4c9c08
3d961a42
3e022fa4
bc830431
3e39e851
3c956bcc
3d7567ba
bd810336
be167943
3e068a32
bdbe582f
b882fc4c
3daf59cf
bdfa1a7e
3da2a2bc
bdddf0f3
bdb75f7e
3d2f047e
3dc601ab
bdc16b9a
3e4abd1c
bde42064
3de51780
3dd8a2fb
3b58476f
3db40885
be070fad
bdc92c57
bd35abde
3e071620
3de8ba09
3dc625bd
3d85d358
bd3a024c
be123dc3
bc775f6e
3da6e843
3d441cfa
bd50f8f2
3b9d545a
bdea4ca2
bd77b2a2
3e03f4eb
be3e331e
be24665c
bd7feba9
3e1dce8f
bde93c09
bd6fff94
be1f566c
be258ba5
3de7321a
be066a4c
bc960f95
3e0e2170
3e00ef5c
3e0ed622
bdc29adc
3cf18656
3da45bed
bd373177
bd64223d
bde7eaba
bd40c530
bd525d3e
3c8846b8
bda06cde
3e1bb553
3d235a9a
3dc7dd11
bc69b6c8
bd167331
bdfc131d
bd86e9ea
bd341ea7
bdd10034
bd546a4e
3e08c72a
bdb98b7a
3e04d119
bd33448b
be13b508
bde7b206
be020e9b
bd9f9104
bd941b46
3e1045c8
bd9d9b7a
3dd541ee
bc370cf7
3d36ebd5
bd24da95
bd7cb973
bced1729
3d9a557a
3d8efe57
3c43e5c9
3dafcd21
3e29881d
bdf23fe6
3a625448
3e18c5b0
3da73433
be14d104
3dadfc9f
bd7e4cc3
bc7fe0cd
3d556eb1
bd819cd9
3ca6c0b8
3ce67882
be08bfe7
3d9e5bdb
3dbdd3b3
3c36ccdd
3dddadb8
bdad0423
be0e2d03
be358e66
be0a9114
3ddf9f5e
bdba2ce0
3d74da1e
bd6aa29e
3e040391
bd885375
3c618546
bca34f02
3e0904d7
be02df99
bc2d4911
3e253842
be16b7e5
bd12301e
3e09aea7
3d453a56
3dda6ce1
3e074c46
3c8c48dd
bbdcf65e
bde8cbc7
bc51b88c
3e3f688b
be204223
bde322ad
3e21eb89
be1d5e99
bd075d88
3d0e8571
be49cd09
bc28a1ab
be187394
3d84dc9f
3d10cd91
be1ba613
be274813
be3e7c18
3e214454
be0e3e13
3d93d33b
3df9dd33
3cd1c2ce
bb39de1b
3d34c82f
3df975b6
be34af41
3e0c604b
3e063d6e
bd85af14
bcea3cef
3d95821d
be1de9de
3e017ce5
be1b304d
3d72cad4
3af72a57
bdf80a9a
3e0ac740
3e235d70
be0bc36c
bdfbbd56
3a8e6991
be265f0a
3d612ce2
bd96bb15
3df9b700
bdb823d2
3b4d224a
bdc5c94b
3cb21354
3df49fe6
3d659599
3e2e0f0c
bdab9c56
be2b3655
bbc8c377
3e36fcf2
3da79eee
3d3803d1
3dcc587a
3d916a0a
3e2ffaee
3e0a4aaf
be298307
bccf72d8
bccfbefb
bda016b8
3db9ed8c
bdad0d56
be07d2e3
bd56a391
be150ce3
bdc405f2
bd9dc9b0
be466251
bd12d5e1
bd4ddfc9
be0677cd
3d01e397
3c70b27e
3e23624b
3cc50879
3e113997
3e14e112
3cd3a409
be32a6d5
3cbb24a4
bbdbe1df
3e2fd1b5
3e09ac98
bdea6835
3dbcd08c
bde1aef7
3e2c1375
3de02235
ba098987
3d969263
bbae997d
3df89042
3e05b4bf
be403143
bdbb7abc
3d4580ea
3d38546c
3db658b4
be22fc06
bd1daa7e
3dc0719c
be1dca84
bc9061bb
3e2c7daf
bd42eaa7
bdb314f4
3d330c77
3d6b92c5
3d365f4a
3d5f57c9
be154be5
3de8340e
3db2a5a0
bda0b468
bd0e8d47
3e19f085
bdbbc6aa
be04f3fa
bde23d55
bd991c63
bdffe811
bd8d69b7
bdefa37e
3d10cd1a
ba03fcf2
3c8feb9d
be2693d3
3d0bbbe0
3cac6c6f
bdc62736
be1ebe50
bd77e56c
3e19ba5d
bdcd12c0
bd728353
3e3ea6d1
be1f3cfc
3db81219
be1f6376
bdaee23f
3d8a8529
bdd40859
3c00325c
3e1521b4
be26af78
3dbea753
bd422967
bd3e9d7d
3df39fd5
bdd72ec1
bd988321
be112410
bd824909
bc465ef9
3c339911
bd852d70
3d9bb43b
be0c68d7
bbbdeb5e
3d99b9a8
3e42c8fb
bda8b932
be164e54
3e1beb78
3dcca7f2
bde99920
bd86787e
bdfb0db7
3cb970be
3df25c3b
3e14c59f
bde146c3
bd086755
bd9814a5
bc1fbcb8
3d3d32f2
3d5ae6ee
3e23b863
bddcbbcb
3db0702c
bdc4eada
bd5ef147
bc163a94
3e2c9bb4
bd57d09e
bd555884
3e1a6d2a
3e2c64e1
be1040d7
3e04fa3d
3e11a685
bdbb7f43
3e1e7227
be245009
3dd80c50
be39dec0
be2695e0
be0003ce
bdcdd067
bdcb4131
bdaf2e24
3e454344
3d99e6f5
3e09a786
3d5f6e6b
3d237696
3e0de141
3da0862f
3d2fe265
3df93b4b
bd1e561b
bd5109e2
3d4fdd6a
3cc3e534
bdff30c6
3e114b84
be18331b
3d519aa0
3e292c1a
3dc8e751
3c6089ed
3c57f785
bd68d5b1
bd9f809c
3da599c6
bdff4cb3
3dabf586
3d617d02
bd8480c3
3e052203
bdcd4037
bd9d4387
3bb83fac
3cfabd15
bdcc8b5e
bce2fc5d
3d3ff59d
be1ed55e
bd24a12c
bd7ca227
bdc9c487
bd9af865
3bd6554e
bd407dad
be2b5dfd
be423c19
be15eff9
3daee945
3cc6f640
bce7e7ee
3ccc8747
3dd5c5f0
be06258f
be03cfa9
3e1aef30
3d238537
3d9454e8
3e0eeb1d
be19506c
3d8e8252
bcccc1da
bdf88bb0
be2d16ff
be0f6550
3e389992
be2c9ec9
3d13a61b
3e193064
3e3c5f08
3e07f16b
be01f4a8
3e3b7fb0
bdacf720
3e187ee3
3e03d6ba
3d8334c7
be0cd860
bdf7d707
be3bcfe0
be1776bf
3d4e7633
3dcb2076
3d9932ea
3de184a4
bdd96ada
3e344de1
3da01c78
3e41c6c1
bcda3ba8
3d1d015f
bda75ea0
3dd69928
be107e80
3b9a3307
3dcb78be
bdc7a4e9
3cd94ff4
bd04996d
3dbc32a0
bd6786c7
badf6c18
3cdfa272
bc977458
bd225316
bdf96004
3c8a1f4a
bd77464f
3db439e4
3d959628
be19117e
bbb23e21
3e159b8c
bdb66c79
3cd8fdc1
3dd88e1b
be33ecf8
3c28d557
3cff992f
3e150d55
bdcceeec
3dc55ace
3d80f2bb
3dbf72ed
bd02568b
be0a6c3e
3cab72e4
bd4683fd
bcaa8656
3dde6863
be16c0b3
bdac8a97
3dfb1a2a
3e22dcd8
3e1b3aa8
3d0d3c4b
3dca07a8
3d5f7e97
3e3a0afb
3d8271e4
be1209ea
be072efc
bc1588d3
3ddf4399
be024eda
3e1fd146
3e01d65a
be27b2f9
be28acf7
bdf3b5a8
bdef1bd0
3d5b6cfa
3d4c7e5c
3dc3037e
bb230a0a
be029344
3d1c5149
be17f8f8
bd229921
3c9718ec
bd9e07b3
bbb8adde
3cbeaae5
3d88aff2
ba7723cd
bdb02717
3d97ba8f
bdac6def
3c3bf39b
3e22d35b
be209d13
3ccd4b35
3dde8fe2
3dc390bb
bc2923e6
bd8d0300
3cefafb2
3dd43e46
3d33ef15
3c06d23f
bdd816e4
bd6b7ba4
3d4521ba
bdcdf9e8
3cda78dd
3cb0da64
3def9c0a
3df59f0b
3e01bba0
3cfc3075
bda5c6d7
3aac180a
3e2049b2
bc9108ae
bce2e279
bc4d2012
3e1f0d58
3dc66fa7
3d8f0020
be1f116d
be00dedd
3c62dcdf
3e0d61f8
3dd19ce1
bdb221ac
3df7cceb
bdc33b65
3e040c0b
bdf87a4d
3e00d510
3caf07cd
3d303444
3e37c270
be1d5ce3
3da33a7f
bcc0e7a3
be069919
bd6388c9
bc8ebdf8
3e2da444
be376264
bcddc426
3e0e50b9
bd2e961f
3cfda13e
bd6fce62
3e161008
3dfdafe2
3d2bbe27
bdb883c1
bdabcf66
3e25f82b
bd5170c4
3c6b3a74
bdc4141a
3c0d6e7b
3e1fe104
3d4772eb
bcf9d526
be2e5c69
3bca1864
bb7a96cb
be1a2deb
be243551
3e3bdad4
ba2d8803
bcf5709a
3ce82f11
be54a67b
3df0ac67
3df30bbe
3ce1d170
3db15686
bdafd7b0
be16de57
3d8cd3cc
bde2d4fa
bdd07570
3e03be81
be019f94
be2db512
3d8d85f9
3e009a5a
be2838cf
bd46577e
3e22f1a6
3d11ecda
bdc850d5
bde11ce9
be0c3216
be12ea29
3de2049b
bd2a29b6
3e07c93d
bdc40253
be0deb51
3d4919db
3dd236ee
bc2d312f
3d01e968
be0b29c5
bd2c0299
be28843e
3d51f96e
3c3c5333
bda73eb9
bcfd4e31
be1a180c
be1c476c
3db187c3
bc28270b
3e3dc6c5
3d86b0f2
bdf83270
bdd01618
3e2259b6
be3b1a69
3d2b9a3b
bcdb2c02
bd90a692
3dcad956
bd81b179
bdda2aa6
3d712ef4
bd6f31d4
bc269a6d
bca7755c
3e1d4f7f
bc2a4d46
3e0cc3dc
bc775d1d
be2c3de6
be10f5d3
bd5248f5
3e2a0176
3c0d5373
3e1b661e
bd6efa3f
3e437a44
3e32f58a
be017fab
be19178a
bd66471d
bcf166d0
bc8e1072
3e291692
3db0eb34
bd87114f
bcbf966f
be225f5b
bcfbfd72
be32b7b4
3d22322c
3d9f1cf5
be1da7ec
bdaccbd2
3e1ee87c
be02f3b0
3d273a90
3daece69
3d9fa1b8
be2ffddb
be1accb4
be1cef5a
3dd8db27
3ce78ccd
3da77870
bdc4c0a8
bdbfa5f4
be0c672e
bdb3f839
3df0b173
bdd7105a
bd5d0cb0
be072d35
bd7d6623
3e1a170a
bc7f2955
be315894
bd9e0c17
bdf6814e
be049cad
3cdf9baf
ba4e2ab7
3d93f0bc
bcf1d8f8
3e227f4f
bbd29d54
be18504e
3d741483
3d3d179b
bcc99154
bd25243d
3e47fc46
3e4ebaab
3d7adc98
3d029fc7
3d22dd52
be101e4d
3e057323
bca86083
3e000193
3e2e3899
bdd00a1d
be3fd619
bcf4b91c
3e22f55a
3d18eb78
be11000e
bd58cabf
bd0401cd
3b9b578d
be1d0169
3d41a4a3
be31c0d5
bc85a129
3d51ecf0
3e14b678
3d002366
3e22f247
3dc7422d
3c50cf1e
bdc45831
bd277738
3dad60f3
bde657a8
be62c6ef
bc4298e0
bdff5c78
3df4761b
3dd532f3
bd8f3a71
3dba76b1
3db3175f
be08c19d
3d843ac9
3db3e417
3dbe6f14
39b3138c
3dc6daaf
be24ec30
bdccdcbf
3de459ae
bbd59a97
3e2994ba
bdcac64c
3e12e4ab
bd3ed2f7
3df6c334
3e1b19bd
3d86b21c
be32ad67
3d04afc9
3df0c8c8
3d02e1a3
3db05337
3d8844c6
3cadbfae
bdf38732
3e01edd6
3e6af945
bdf3902f
be0e2845
bcf7942e
bc602015
bdd2f49d
3d9fd0b5
3d60e431
3de37522
3c31939e
3c315949
bd83d735
3d492d91
3d96d526
bcef20e1
bdb5e94f
bd4ce495
3de6c921
3ddfc632
bd927da4
be370bd6
bc99737d
3aea5b71
3e007a56
3d04ad52
bda3169f
3d40c529
bc984712
bc74284a
3db2e818
bdb68ee9
3d2ac132
bdad928b
3dd9b338
3e4842f4
3dedb9ea
bbd44a4c
3d4e5af3
3d9d3fa6
bcaa4c7d
bbd49341
bd91ee3f
bcc344ba
be13a616
bd7128be
3e26e697
3db77ac1
be1fbd2f
3e11279f
3da178ab
be0caf18
bd950032
bd926892
3d7f71f3
3de216ab
b87e71a4
3d2caf32
bc95dd61
3c90a50c
3e23782c
3c0384cc
3c2c90e5
3e2aff99
bde588b5
bd69052f
3d553044
bd8faeb3
be241f38
be0961b2
3de66da9
3c9dc73f
3dfa9060
bdc57de9
bdfb80e8
be24f4e8
be1463a1
bcfb9e46
3e3becd2
3cddc400
3d2a3726
3d81f9f9
3dc649bd
3da021ff
be0c0df2
bd17d10a
3e0ae2e8
3e143f22
3daffe16
3d40b343
3d7453a7
bdfbbf9b
bc91bb66
bd9a55b5
3db36271
3e165056
bded76bf
3dcbcb7d
3e3d5762
3dad1429
bdb47eb6
3c9b0bc2
3e3460ed
b94c4642
3cd1869a
3da0e950
3dfbaafc
bdc2d531
3d1a102d
3cda429a
3cbd6b17
bcd4e7e1
3debb9d1
3dcc5df2
be0850cb
bd9a3b2f
bd95cadb
be0c28c4
3db129fd
3dbb6b0d
bdf7aafb
3db5005d
3e35245f
3e065a5f
bdc026c8
39a0fe93
3d75b9be
3da4a2e5
3d2aa03e
be27f682
3d38a599
3ce28941
3dcd81f6
bd9de864
3dafb0e1
3e2be798
bd4a47de
3c998482
3d85a6ad
be2df87a
bc29d23d
3dd0430a
3d11b7dd
3dc5215a
3e22deae
3e0a2f03
bdbe5a8e
3df8c84c
be1861b3
bde83eb0
bd371967
bba3a83f
3e1096f4
3e20f152
bdd0ac92
bdae69fc
3ce79dbc
badfc105
3d7cb40e
bdadf6fb
bdf98ffe
bcb17c58
3e34484e
3d464e00
bdb40cbd
3d6104d3
bdd3a44b
bde8680c
3e1ed6f5
b98f8614
3d5b5070
3d9bf08c
bd8b8e96
bda298d4
bd9eccb7
be1494a6
bc8d4364
bb52af24
bdea31a6
3e09938e
be2cb0e4
3e0bc04d
3e136dfe
be29c847
be2a82f4
3e297e76
bcdce46e
3cb7f2d9
3b4204a6
3e131b4f
bd54c597
3b6ec38b
bdcd5c56
3df103de
bd9a5a2b
3dc3398a
bde35fa9
3e0bb958
bda18111
be12aa06
be1d4769
bdd6c6ea
bc7ea65b
be0ef28b
3e044487
3d949757
3e1976f6
bda9ac8d
3e0dcbe2
3e21e083
bd627b34
bd262b20
3e14b6dd
3e4099b0
be14d1ea
3e1fe53f
3de2f07c
3e2d777f
bd5fcfda
3d4876c7
bd814114
be2a83ba
3e32a4dd
3e34bcc3
be1def6a
be018e20
3d4f693e
3e142f76
bd75d397
be06865d
3c161f6d
3d9c580d
3d3ffb93
3e1a8bb6
3e37cfe1
3cedefa6
3d8d4d4c
bd424827
3d88c39f
bdb449fa
3dd1ba21
3d068091
bccd5911
3d0e6c59
bdcaa01a
3d7b6a57
bd3d1e34
3d6ea6ef
bd753a1d
3d3e3ce0
3e0c1648
bdc6c478
bdf10d9c
bce23044
be28e2ba
3d3881fa
3c0247b0
bda8d5a0
3d35b5b4
bd806da2
bcc86753
3e052dd5
bd6f7791
bdfb8802
be22ede9
3d9fc973
3d8a3a2b
bce6e2b3
be4247cb
be2627d8
3db844a5
bdcab7eb
3dd406c6
3ccf6478
bd2b0586
be24534c
3e1f4448
bc7a9a62
bb0b5ed6
bddffdb1
bcafd236
bcdd4378
3e26663e
3dc3e050
bdb0af4f
3d81f8c2
3dd6d3f2
3d0b9c1d
bd8f5f24
be01f79c
be1d12ed
bd6e4e6d
3e17b084
bd3878c9
be0d3f7d
bde6e743
bc987038
bd060d4a
bdb6fb72
3d5b15df
3e21c775
3bd9a4f8
3d9d105c
3e30cd54
be128731
bd3105b7
3d72a218
3e14dc27
3dbb6940
bc5248f8
bdb12092
bddfb46f
bd02aaf7
3dbe37f2
bda7b61a
3e21f442
3d1dd38b
3de7f89d
be2a7531
3cdc383d
3d268810
b9b0c7b1
bd7e436a
be33b1a4
3dacf01a
bdb49315
be2861e4
3de34574
3e081fb5
bdbdc1eb
3ccd07ac
3dfa1dfa
bcfebb42
3c618c28
bdd1694b
bd4bac2b
3e0a64f5
3de163f1
be12c18a
bd978bf9
3d853620
bdcab197
be2212cb
bdbf879b
3dc5370f
3d34b797
bdead1fc
bd4c0973
3e0b07d9
bd90f1de
bd90bfec
3cd954d4
bc4a27ce
be1183ef
3dd587ee
bd944cba
3e02d58f
3e1cfc10
3de42e0d
be1ccc13
bbeb4cb2
3dd3fc0b
3e3ee38a
bd43098a
bcccbe16
3cb99d9d
bdd729a1
bdef178f
bd811ae8
3d10756d
3e150457
be694364
3e2a180f
bdec4677
bdba78d5
3d1d00d2
3d748248
3e0b1625
3e13069e
bde8b9bb
3e3aa6f8
bd2836c9
3d551497
3e2edb9e
bc4cd0ad
bbec7bb3
bc33f519
3c96db0a
be232d9e
3d8a833a
bd2ae8a9
bda49743
3d1f3087
bd8c0b6d
3e13be9a
3d0f1ce8
3e3b23a1
3e1f3dac
3b74430d
bce6978d
bc8efca8
3d885761
be12704f
be07ee49
3d99ef1d
3c91a155
3e1d955c
bdd646c7
3c73071f
3e5691bf
3dfb6b58
3d3a0d91
be29a2d7
3e3f5c13
bd81e12b
bd7e6f67
bd65c42a
bd841ac3
be06b014
3c14d5dd
3e1fce51
bd98cd96
bd5247f0
be1c529c
3e140bc2
bdf79be6
3e2dd7d1
3c769832
be06908b
3d51c73d
bd84496d
bdd95308
bd635cc9
be03ed04
3c8b44de
bd770ede
bdcfbdb4
3da96035
bdf8c3e5
bd3c8f87
be19649a
be2fcd10
bde38c74
bd8c5549
be0f7932
3d270093
bd811ac7
3df5c2af
3e3e5940
3dafad04
bd23d730
3e1bf8d5
bdcd3224
be0439bf
bdba9206
bdee0a04
3dff446b
3cc11085
3db16d3b
3d0089f0
be006e9d
bd7280d6
3d7f356c
be14281c
3d5ba286
3d3716e7
38411446
3da6295d
bdc134c3
3d700813
bcbc9e25
bd99b9bb
be3c0bc6
bdc9de32
3e263a38
bdf3f9f0
bd8d20c2
be1adc01
3e31c4b3
3e361697
3d07e298
bc10c67f
be301206
3d9009bd
bd1c6b3c
3da5c7ad
3e1529e6
3e156e2c
be343390
3e3c9307
bdd5ea38
3cfa8802
bd46c1de
3e03d9de
bd38023a
3dd6daa9
bcc7f093
bd6c33df
bc856925
be102955
3dbe8afe
3e53dec0
bd627385
bd1c9af8
bdf88848
3d9d0a11
bbc2cf7c
be242f34
3dadff7f
3c41d848
3e0efc6c
bd4e2b00
3e15caa2
3dc8e03d
3d0c12db
3e11b2cf
be12d85a
3d0fe109
bd55bb4b
3c1b47dc
be237fe6
bd169ee6
be1c2e8e
bdf7aff1
be50313e
3dd9d347
bc3702be
bbca364e
bbf88f88
bd353d17
3d35fe7d
bc7e2b79
be2c3f00
388f0da5
bd022d95
3d938792
be13b340
3e198c27
3d55c993
bb03cd99
be01ab23
bd57aad9
3e26d334
3de461d4
3e430038
3dd57492
3e2d6799
3ce08b01
bd7711e5
3d549ba6
3e07cd66
3ddb501b
3dd2e9a0
3e161223
3df51510
3c2b07c8
3e2d1871
3d07498c
3da5a74f
3d09d5ca
3dc4557c
3e257422
3c99e100
bd4258f0
3e2a357c
3d341225
3decc9db
3c43cd49
bcaebba5
be36c42a
bc993e66
3db89068
3c36317e
3d8d1360
be14c084
bd21e206
bd8ce80e
bde91c77
be183ebb
be2f50e7
3d6db6da
bd8a8270
3dc7de89
3e4b4ea7
3c618eda
be04b3c3
3e197f7a
3ba018c1
3d5740dc
3df37753
3dbe8a82
3e0e76eb
bdff9c77
3e13029f
3e2208fe
3d13de02
bd6377c3
be25178f
be08e4ee
3dcf13a5
3e27bd29
bb5327c5
be252673
3e39c8b0
3d8f5528
bdf7bc94
3ce0692c
3d002fe0
3cb5162c
be29984c
3d73112c
3e1f7e71
be04c3aa
3dce4fee
bd24517a
bcb35607
bd60f2db
bddcc4b9
be0ff400
be0b48a9
bde63c47
bbc4453b
bcf3cbd4
3e08d08c
3d959dfe
3de776a5
be2091a6
bbe72a8b
bdab6598
3c966e75
bcb8f94c
bdb665a9
bd6f3bbe
3e0f2e75
3d95dc87
be0bb8d3
be39845e
3d809301
3dc79738
bc34406d
3e064398
3e120662
3d0e6227
3cd4a6ed
be069392
3e15279c
bdddfbc5
3d7edaa3
3e25b816
bbc603ab
3d343d43
be1faff1
be1a95be
bbd69e5f
bbff4ec5
bda6adab
3dba86ed
bdfd20ed
3dbab409
bc94779f
3e30c300
3d9212e0
3d619037
3dc4810a
bd3ffb6b
bbd0fb1c
3e23cb7f
3e2c846b
3ce2243e
bddac6d2
bd0c612a
3d22b180
3acd6e4b
be2a4d26
3e2f01c4
be111551
3de24c57
bd96a4de
bd82c5b6
3e1d90c0
3cd70289
3d9236b3
3c5deb76
3c124896
bd38fe4b
3c8fe895
3c3bd685
bdcb3535
3cf80209
3db0e212
3e010477
3b154f56
bd9d19b1
bdb86bc3
bddbc0e0
be050f91
3e2da14e
bdbc507e
be19e8f1
bdf3decc
3c541755
be3b8ff3
bd27373e
be1436d8
3be82bf5
3d77a169
3d57c990
bdff637c
bdc78d96
bdfca78c
3d1cf6f2
be178012
3e2d2c76
bce6ded6
ba837416
3dcd909e
3e3d41d0
3de97cee
3dfea6ba
3de312f5
bc5d9116
3d81d105
3df36775
3e08b9b2
3c90e8f0
bd3c75d7
3c34b9cd
3dc3f7c8
bd65314c
3e0dba67
babe2018
be1c622f
bdd3da64
bd99ff5f
3d682055
bca13fc8
be0e854e
bdc04ed9
3d40f158
bc7fcb13
bc8093f7
be1ba267
3d32e6d8
3e0ab67a
bd259650
bd61b7eb
be090cae
3c95d022
be177561
bdb35d0a
be172ffa
be02b732
bd091b80
bd8f45b2
3c61f33c
bd7c5ed6
bc188ec7
bd8cbaee
3cd28159
be4e9b9a
bda6f4cc
be21c3e5
3c862f26
3cfdff03
3d05dd48
bcea7e0d
3d98fd4e
be3a3dde
bddbd473
3d0cb49a
3e012a12
3df2e305
be48f8b6
3e2bf0b8
bd9c87cb
3e387777
bd417eef
3e060b1c
bd951159
bd8d7736
3df96f44
bdca62b6
bd9cc651
be27b0c5
bdd92544
3daa44b2
3e20f9e5
bd7285ed
3dd50b27
3dae024d
bcb94816
3df8a4d2
bdfffabb
3cbc44f1
bde55ac4
3d9126ea
bdb01125
3d768854
be0534cd
bdba0f3b
3d394c43
bc76ff47
bb233e4b
be27083f
3d96b5c6
be5f74c7
3c618374
3e20caba
3da50886
3e0107f5
bd28e2e7
3c950500
bbd3cc56
bd09c5ee
3d11ed72
be0ad3da
be20fc2c
bdeddb6a
bdfbe506
bcacdab9
be0aeb0b
3ce546f3
bbf989f7
3dee1dd3
bccc6197
bddd0aa4
3d2ad023
be3cff0e
bd02d073
be08067b
3e14e22c
3dc0da4f
bdb8dae3
be165918
bd9396c2
3c04dec8
bdde636b
3d0df8d1
3e06d653
bba626b8
3dc91dc3
be090454
bd25e110
3e1e3ab7
3e2a934d
3d7c631e
bd2d9382
3d0d9066
3cf2260f
be253df8
3e15e279
bdfe3d41
3d79dc37
bdd4cffa
3d8ee9b3
be003a5f
3e1abc0a
bd034b74
3da82137
3db0e757
3e077950
3d110058
3da9cda0
bbb2f0ce
bd62aadf
3ca836a0
bc54e448
39f526ac
3d751980
bcb13c2d
3e2ef22c
3cb027c8
3c7cd0c4
3e15e6c6
3e26216f
bdad4231
3e05ccd5
3a654c51
3e2c707f
3e1c154e
3ced23fe
bd1c8f05
be1c774d
bde095eb
3db5c484
be21907a
bd916de3
3ccef63d
bc10b3ff
3e06407c
3dc8249a
be006979
bd26c07a
3ccd20c8
3df4921b
bd9adf91
3e2e28b9
be0a4ec9
be05fa9c
3d417cc0
3da93056
bd18f867
3e226590
3e061a87
be2d86d4
3e1239cb
bdc0d158
bde26d82
3e274a9d
bd602258
3d74faa8
be29616a
be1f3634
3e52d9ea
bde2eee0
3d306f41
3e1f3c67
3db5cf53
3d5375ce
bd20ba0b
3c0968c8
bdf5cc54
bd833762
3e02d576
bd1b843c
be3b9ec4
be169fb0
bdeb9d53
bd8f584d
be219c15
be183a6c
3b9a36a7
3c08959f
3e43bfd3
bd01f221
3dac3d25
be075a35
bda68e9a
3db64b79
3e100566
3d135905
3cebfce9
bda14716
bda6c45e
bbf67c26
bc072857
3d311f4d
3cc469c9
bda6bf7d
bd8f4678
3e3fca98
bde6ac15
bcdf6dbb
bdaecf9a
bde9a928
bde1f854
be28e21d
bdf8726e
3d2217be
3d92c2e9
bdaf95e2
3e0f8742
bdc898da
3e58b491
3d89e96f
bd123258
3d42a7db
3d8f2674
3cf2bbdf
be3dd028
be0995e4
be34118a
be06d725
be2fc267
3df23e0a
be4e080f
bdf0bd1f
3e0833cc
bda75aad
3d0fb526
3e16a9fd
3e29f08e
3da6676a
be2d2685
3dec6fc3
3cdb11cf
bce4a920
bd5fd869
bcfe193f
bd17d685
bd472a48
be39d785
bb5944cf
bdd612f8
be372b9a
3d88416e
3df38a15
3d0190ef
bdfa4d0a
3dc45cbb
3d1d105d
be1b774f
3d2240a0
3e2c08d5
3dcd8d74
bda5135f
3d77135f
bddb6491
be141988
bd4a7783
3bb67378
3e242079
bd8af1a0
3e07d0fd
bd477d13
3e2f8f75
bde50fe0
3e33b337
3ce11a8f
3dbbfb1d
bd7d8755
3d518547
3c0e1ebc
3d00f3d7
be27de61
bd0d5076
3e39b396
3e2a6a41
3e04cdc1
ba946118
3e013247
3d78cc37
be18b272
bdd4f76b
3d5300f5
bd9200cf
bdfdc903
3e1e458e
be2e3e67
bdc7fa14
3dacefbd
3db9b837
3e231947
3d8775a9
bdd0dca8
bdf1ae3a
be23d081
bc9dec39
be0aac0e
3d9f341e
be1e133d
3d11a6c2
bde6f88e
3dbd3ee2
bd866749
bd3f21df
bc9f943d
3c9f57e8
3d313e7c
bdf2c336
bdb6c04c
bc5786e7
bbe46d66
be037a1d
be13f2a4
be21ff53
be03f414
3e26cdfe
bd949586
bbacf68b
bda4f1fa
be2c0652
be0c3d2d
3dea3346
bd20e7de
bb86822c
3a78de8c
bad225e6
bdf3606d
bd089d08
be0f659e
3ddd5bf4
3db9aacb
3e372147
bde328b6
bd35a566
3d9a4d13
bd192f7c
3d3052ed
3d9b8dc5
3a5b80c9
bccb1311
3e322650
3e38413d
3d83eeb6
be4776b0
3dedf8b3
be2876b2
3e24b63f
3da84c27
be0042be
bdd0309d
bd461f17
3c2ab533
bc049069
bddf8350
3de7c554
3d235e15
3d526103
be040ef7
3e1802a4
3e166d8e
be06f6ec
bd9449c6
bd2cedb8
3d8ad205
3df3c62f
3ca10799
bdb9e25e
3e0f104f
be6252f7
3dea0e51
3d1db2b4
3dcd1294
3d16ace6
3d660c33
3e1521f0
3e1b2639
3dcdf325
bcaef570
bb8525f6
bd042b6b
bd637cb9
3dd73d52
3c62ad75
3e19f637
3e39f395
3e2af760
3e1ab824
bcafdbde
bd64748f
bd4056fb
be36aad7
3ddb9065
3dbc1c50
3d3f7b42
3d8703e6
3c4ff6b2
3d2afa18
be180d41
3cf06b87
bd921363
3ce01de1
be1a6efc
bdcd0b44
3cc052bd
bd55b582
bd9ffa5c
3dc25c26
bdabc38b
bb4fc6f8
bde0324a
bd279fe2
3d8a9f58
3d4062ca
3d425a28
3d6f3d6b
bd6b2a9f
3df5935e
bdefcb73
3e2184d5
bd8cb127
3e18f0b0
3dc72bf3
be18afd7
bd7449bc
bd6eb6b4
be21d919
3cc6eab2
bda90b37
bd0f8b72
bd1987b2
bd107f3a
bc9fe4b4
3d845411
be003c54
3d9f93e0
3d21cf95
3df1a378
be1bb588
3e559819
3df03599
bda562a9
bd69a926
3e259ff8
3bbd8f26
3db41a20
bc85bd75
3d8cf860
bce42d5a
bcfeef68
3e0ac0bc
bdd83943
be23236f
3d48cff5
bdcad149
3d9bbea7
bdb9cefc
be0f0b7b
3e0fd6fd
3d1a285e
bd446934
bdd27b2b
bd890468
be015d77
be0b5a1e
3d447c79
bd57a749
bd8559ea
3cb463de
be28bc30
3d0021e4
bcfb9ec6
bdc62e8a
3d90fa69
be5999bc
3cf01eb5
be0a1d27
3da7df3d
3e1570ec
bda839ae
389b0201
bdc91d39
be16f2bd
3d835551
bdc658dd
be391918
3defd178
bc8cff9c
3dc85237
3e089620
3db79cd8
bd9ab6cd
bd27dabc
3d133996
3e363a8c
3dee206a
3d7d0cd7
3e3bd7b0
3e2f4053
bcc3ec32
be004a53
bcf5abcc
3d239112
3e40d28c
bd0e5ab7
3d330de7
3d549a61
3e223a8e
3c9f823e
bd6b9b1b
bde3e8f6
bd9e07e3
be1f4e30
be366895
3daa511a
bdf4913a
be006c58
bd9be707
bd272eb8
3dc7ebf1
3da06437
3e481a9a
be1a986a
bd1ee375
3dd7efb0
3e123349
3da5fb73
3e29af95
3e2dfc98
bd4af608
3d55c3e0
3e01d576
3e167f9e
3e03b734
be3561d8
bc3489a8
3e299713
bde8d277
3d144643
bd1dab4a
3dcecf0a
bd7c74a4
be1606e3
be15ef5b
3cfc7767
3dde5809
bd42db1f
3d750bf3
bdf5f650
bd159578
3dd46cdc
3e3695ea
3dacdd25
3b1c6ad9
3e0d6189
3da02568
bdaf0c99
be06912d
3e22f60f
3ccf7774
bc0e0d2a
3e2bc65b
bd7ed3a7
3d5b2050
bd8953c2
3d70bad7
be13c2b5
bda37906
bdfe540b
bdd48749
bd0db9da
be2d567d
3dbcb0fb
3cebfc12
bcd874dd
3d5729df
be16b641
be055036
bd9a1bf3
3e0dc813
bd564d40
3cb35825
3ddc143f
3dcb0a67
3decd186
3c9fb9c1
bd7072e0
bd663ea1
be1cac42
3c452a98
bd3438da
bb4feef9
3d996125
3e1ae8c6
be1a088b
3de68968
3dd71ff4
bcbefc30
3d2fef79
be00d800
3dd78221
3d974028
bd390749
3d3b5c3f
bd6d21a8
bd8e0783
bdababaf
bde0c4ee
bdbb86c1
bd1b2c0d
bd6521b7
bd654bb5
3e3441cf
be37bbb2
3d9232e1
3e20629e
3e07a8f1
3dd60664
3dc811f6
3daa3147
bcce1e8f
be1e9cc0
3d158a05
be1e0dd8
3c99633c
3dd00e2f
3d85989c
3e1ae844
3db9f51b
3dab0741
be099d4d
bdb7f2a8
3de57d57
3e15038d
be39b725
bb523538
3d56aea9
3caead55
3da1006f
3c33abc6
be354c42
be068aeb
be086ca0
be197c95
3dd49742
3ceea035
3c23b932
bd0c9d8f
bce73dfe
3d09a573
bd999c4f
be123255
bae466b7
3ca4161a
3a9eb484
bc6157a6
be08781e
3c12ba85
3dd83a49
be2bf73d
3d8cac28
3d6ddcb3
be254f2d
be1cfb7b
be36f7f4
3db46be4
3e0e686b
bdd8bb15
3dc9759b
be2ea35d
bd959b4a
be31fc3f
3e0451b6
3ddf2ed6
bc93b9e9
3e1f4443
3de89fb9
3c0b40a1
3da8701b
bdeda792
3e020a0a
3e1bd557
bcbc698c
3db15e5a
3da89ebd
bccc7dd5
3e4607b1
3a53ebf9
3cdae877
3d0b2f24
3db3a153
3d94ef0b
3deb906a
bd42fccc
3ad9752f
bdae2dde
bd418775
bdd01cb4
3dbf3b75
3e4ba091
bd8f8391
be23f4db
be075593
bdfd54fa
bde147ed
be0a8178
3cbeb40b
3d5aa86e
bdbacd37
bc50c3b5
3e2d2c8a
bdb8ba5c
3dff99b1
3e0d94bf
3e024b04
bb0c0c9a
bd9d7784
bd750ff9
bd952580
3e21c7a5
3dfe3aa9
bd9854b4
bd683f44
bd836b9b
3cf085f9
3da453a9
3c7e524e
3d2fbb0d
3cf7ea43
be1bc86a
3e1aefe9
3e28ff20
3cda0aea
3e37f753
bdfc815a
bbbf61cd
bbee5408
3e07535b
bd4b781e
be28543b
bc2f7772
3e182a1b
3e3445b4
bd599af5
bc29f8ad
3e1fc9fb
be2a376b
bd781bc0
3c6982f8
3d9bd0de
bd83237f
3d94ad1f
bdae3535
3d9f205e
3dfa0d44
be47ab91
be117e97
bc911576
bc98bbd2
3e0b70c6
3ca0c3a2
bc54d32a
bbe7d5b8
bdf8a65d
be159583
3ce3413d
3dd49c64
3c0128a2
3c77e4e9
3c58f6dd
3e4ca4d0
bd1cf81e
bd835f5c
3daec489
3dc22710
bd6c7299
be1ad1dd
bdb8e8c7
3d1933d1
3c91b948
3e462277
bdc09d6a
3d9939f5
3de03f94
3ddd5dc8
be3fb086
bda74ea9
bd8628f6
3d69634c
3bba1f3c
bdfb95f2
bc5399b5
bd121a15
3c2bf941
be2f99b3
bc8deb1d
3e30a952
bd877e86
3d14986c
be11c06d
be4637e7
3d3ec06a
3e028f9e
be0eb506
bda48ffa
be02cf9e
bd67043e
bd879286
3dc5128a
bd975f72
3ca7813c
bd382298
3e09ecb8
bd00ec2f
bd82b7a0
3e0c0937
bd5e96cb
be43e0f0
3deac300
3e36995e
3e08f470
bd97afc3
3ca08c8a
bdc8d139
3d83bded
3e282ba3
3d05633d
3dba6593
3d89f296
3c92c409
3e1f03e1
bcadbb67
3db373f5
3dcb7b2a
bdf13747
bdfe963f
bd2b6b10
bd3c1b8f
3c9a8ef9
3d8810c9
3ce3b13d
be055fd0
3db26ff3
3d0b21a1
bdcc4efb
be22da30
bc035b84
3ca14c6b
be0bf727
bd016c9c
bd13efed
bdcfcfb9
bdcf09ac
bdbf3ac7
bd0559dc
be20e0ce
bd836452
bc1a4673
3e2765b0
be283aa9
3cca5e32
bdc33b21
ba06b209
3b97107b
bd21c176
3dc07d8a
bdc76b5e
bdb60893
3d623da2
3d2c63e2
3daeb080
3db19b4c
bd82558e
bddc4dcd
3e13c8de
3dd6799b
be42b818
be258f1d
3d1d1580
3cc5906c
bdb059e9
bce8e99a
3d6bfcc3
bd653677
bc97cec3
3d409973
3d641977
be067944
3dac9b93
3dce696b
3dc4a2ac
3b7ab1be
3dc7662f
3dc2e5e8
3e16bbf7
bd284877
3e1c373f
be3ae662
3e1b70cf
3c6c6cb2
bdc44b02
3d47a8c4
bd9b45a2
3e1ce645
3ba3c79e
3e3fae05
bdcb3496
be365d10
be35e935
be01ac67
3e0e547b
bd69ea18
bd823ec1
3c2bd54a
3d786384
bd7bc4af
be0c4a92
be44b9c7
3d84df95
bdcfee9d
3e046e3d
3d36be31
3d923d16
3df90937
bdbc099c
3d9cf974
3db65223
ba0f44b1
3df3590c
bd5baaef
3cf0d753
bda30a30
3d2f4f52
be1cd855
be221313
3d2a973f
be1cc28b
bdd13115
3dc4d3eb
bd4c8486
bd480533
bd566a4a
bdc7397e
3da12cad
3c7465be
bd1c972c
be00fede
bd61992e
3d797cae
3e0b3d8b
bd0c8ebd
bda149a2
bd7f7404
bb6ebd71
3d2875d2
be0372ae
3d606cb9
3cd45665
3d688ab8
bdec2632
bcb6e5d9
3dd35e8d
3d47be02
bd2d6006
bd97eacc
bc9fc2a2
be118b51
bdf13c22
be1af32b
be0f7ec0
3df74812
bb6d7e7d
3d6a715e
be05bab7
bd22e863
3d129c87
3c20aaf6
be420ab7
3ddab25c
be17f731
bd82ae88
3dc5e601
bd955d91
be049fe3
bd3410a6
bdaef57f
3c59c557
3e22678f
3e12ec2e
be2300a4
3dedff0e
3e3f2198
bd44a5e6
3d9d59b7
3e136e8e
be0cf992
be189d32
bd4d54bf
be0dd2d9
3dc41e13
3d32425c
bccf29f9
bdccc9d3
bb21f79f
3e023f99
3df9b9b5
3e32bc79
be38c321
3dd6060a
3c338451
be233c36
3e16de4a
3de8a9da
3dfefad1
bbf669d9
bdd59b01
3e1b5f28
be290832
3c03d5dd
bde3f0de
bdbc3913
3e017d9b
bd27a8d4
bda8aa24
3cb1e788
3e299eee
bdd907af
bd47d3b5
be0e5035
3dc5d97d
bd1b0594
be420a6c
bdfdb561
3d72329b
3d3e74d0
3b9884c4
3de2fdfe
be21bf32
bdd0a139
bcf0ab03
3dafd4ba
bdb624af
3e215520
3dd4fe58
3d1cdc6e
3e03b6d1
be1dc229
bdd30395
bd223ad7
be1f6383
3d001f1e
3d3c93fc
be0faf39
3e1b7126
bdc7aee8
3e3314df
3d82ac4d
3e118a58
bdd82784
3d0f4671
3da46656
bca26175
3cba977f
3d0c81a3
3c90c0ec
3cc5fbce
3c3da01b
3e19cf87
bdbd7964
3e3122c6
bd582599
3dfedba1
3d3ae76b
3e4ddeed
bd317f3c
3e176026
3d78d50f
bcdac091
3d4a28c9
3d93d330
bdf2480d
3d5fa5b9
bdb8540a
3dfe83a9
bd60eae5
3cb68634
bd0b82d4
3db13a9b
3d3119a5
bd8d02a1
bda91d71
bdf52e30
3a0b6d39
3c9ee8c5
bdfbce74
be115149
3d8ed845
bd71b596
3dcb2419
bd87f246
3dc0518e
3e08990e
3e35562e
3e1451fe
bdeae8b2
bd57e5c1
bce0bd5e
bdf9f920
bdddec4e
bdd5ec82
bd7696c8
3b00d3ad
3e01a1e8
bdddf366
3aa2c0b2
bd9c5b3f
3d9841d7
be21a3b6
3d8cb95a
3ddce51e
be30f657
bd268d0d
bcfb5204
bdb1f545
3d83c20d
bde76cf1
3e229863
bd3780fd
bd81df6d
bda89cc8
bdfc67a1
3da8a2a7
bd9bdf90
3dfe70a0
3d0a8704
3d08273f
bdda21ec
be1e91c3
3d3f86cf
bd5cf57a
be181198
bb4e6f1f
be25771a
bda3f87d
bda47213
bd5a28a3
3cf6d569
3d9e8a22
3e17fb29
3d8643db
bc9b359c
be01cfc4
bde1a7fe
3e13cf92
3e15d48c
3ddff4be
be2f92c7
3df11371
3d56430d
3e1b3fa1
bdae0087
3df3a796
3d231cd4
bcc1dba5
bd44fe64
3e2d51ee
bd659922
3df1790e
3e1fb8c2
bd6aa25d
be09374c
be087803
bdd5ae22
be18b16c
3ccc0288
3de41a09
bd4bb476
be107068
be119220
be3609c1
be006d53
3d564b03
bce1f529
3cf6e4bc
3e1e9a8a
3dc4aee2
3d055655
3d4ea603
bd261923
bd048b5e
3dd63d1f
3dae3ec7
3e1eb175
3e3ca276
3cad7ee1
3e0a8ad4
bd8a6456
be176a10
bdc4169d
3e043415
bddfa2ac
3e0d2f12
bdb73ddf
bda9e354
bdaac125
3e24bd31
ba8df394
3dc82ccd
3dfa51a9
bd5c7832
bd2c916c
3d917fc3
be0c8916
bda6969a
3c91f95d
3d675652
bc25f8d8
bde715f4
bd831d6e
bc9df71c
be2289bf
3c41f48e
bdbb7466
3d847705
bdc18577
3aba97c0
be240368
be0c11ab
3e1f832f
3e254d0f
bdab3d4d
3e275d09
3cc00e62
3df6fba9
3d840e38
be3a35c8
3d901827
3b7c51a5
bda82ca9
3de46992
3e25bdea
3da9948a
3df13643
bd9b3600
bb079f6c
be053b1e
bdc46080
3dcc4961
3e1a8dc9
3e51268b
be11a0d4
ba897d5c
3c48e2ca
3d6f5b12
3e31c61a
bd14fda6
be2b5e8c
3e1967f2
be08debc
be0a492c
bdae666e
3e277cea
3dfa4d9d
be33c9fe
3d82c9d5
3e0c2b4a
bdd6b2ad
3e3dcbb3
3dc30c29
3e2bf664
be0c3095
be147951
3ddd750a
be03a521
3dbfb76c
bd94e982
bb3c920a
bcaf81c4
bddd9c07
3e34146e
bdaa7132
3e19336f
be07885b
bc69b95a
bdee949e
3c814e75
3d9692a7
3e0b8ff3
3d000fd6
3e1fedb8
3dec031f
bd5305c9
be10ba40
3e1f866f
bdf47d4c
3daa2635
bd0145bc
bceaca96
3da01773
3ddcc5c3
bc43e78e
3e12ef14
3d9cf741
bbebab33
bd25c64a
3df87bef
bd1e0a3c
bc87cf3a
be3f30ac
bd203e9c
3cdb0b09
3d6087e5
be303584
bdd84c24
be050ced
bd37ce69
3e340ea7
be0e7990
bd75f69a
be27c548
be22e0ac
bd566ea8
3ab8894c
3e204bb4
bd8fc278
bda68059
3d8db5e3
bda6ff60
bba0fe3a
3da602ff
bdce4d09
3e162250
be18f716
bdaaaefe
bc31e693
3cf29434
bdc5d2ad
bd53bd31
bd6c8c6e
bd74eb7a
bd81b0f8
bd8bd271
3e279d3f
3d8119ef
3e09ea2e
3d550580
be184b38
3e58f5dc
bd9ab275
bcf29592
bc923976
3d0bd9a8
3e18910a
3da2bfd7
bd5774dc
3e02127b
3da7cf2d
bd4dd61d
bdd1d854
bc938054
bdeec284
3e0e0faa
3cc9ac28
3c08b392
3deae3de
bda4bc3c
3e6d7a87
be522630
bdd38e0b
3d5eba6c
be20542c
3dac7141
bd235483
bdf6d2b7
be0d3a11
3e3b659d
bdf50946
3dc6deaf
3ac33a6b
bc8840e0
be401f9f
be2130e1
be2ceaf0
bdee9153
3c38027e
3dc74971
be1eff9f
bc80b912
bc6b6e3e
3d339bf1
3c3e5a32
3e2fb5f3
3de63d83
bcace0e1
3e226761
bcbaaf51
bc66c78e
3ca714d1
3dfaf53a
3d6c2e1a
3dde7d80
3d2873ce
3c20980c
3e30852b
be048a44
3dadee25
3dbfd61b
be3d0ddf
be09a75a
be0f96e4
3c8f329a
bd00d22a
bd7013b7
bdc6ef84
bdd0ea5a
3d8aec92
3d367bb7
bddc3242
be08abef
3dc73ffe
be03b7bf
3db1870b
bd471f2f
3e0efcd6
3df1cc42
3dc50227
be196148
3df81c39
bbfa0806
be274d34
be1da8d2
3ded9af2
3e29a204
3da7ffbf
3d5362db
bcccfabc
3e02973b
be2dd1a4
bda05e7e
bde7b9a7
3dfd427e
3df11aa8
3e27dd9a
bc914a97
bd0bb25f
3d272861
be20ac11
3e28381c
3e3516b5
bc3ba5ab
3baf0932
3d9d3e95
bdc94201
3d2f3ad7
bdc3acaa
bd9c9e98
bdc8344b
3d85fadf
bd7dce2a
3db6bba9
3dbeab93
3d1919d6
bd4dee6f
3d292e47
bddd8e7b
3e3d5e85
be00b45d
bcd5ab85
3e1af091
bd97e2d1
bd7b61c7
bd1ac290
3e310909
be24f0b2
be0ea2ec
3e0acb38
3e04603e
be1237df
bdd40362
be69f01f
be1833cc
bd1bc246
be076176
3dd12d81
bd4c44da
bb278615
bd31a0a6
3db71b73
3e2effd9
bd5e440b
3df5d0bd
3dbdb505
3de694bd
3bd61d1c
bd196fc8
bce5c93b
3e853ad4
3e269b57
bd3bcd61
3e2f84e8
3d26533a
3cae54d9
bdd62df6
bde6e910
be3247a4
3dd3bf05
3dddae78
3d0dd70f
bdf9af76
bda2bdf6
be346530
3e07b7af
bde85367
be00db7a
bc6c0fee
be6d57d9
3e348396
bcdb04d0
bdea2817
be032acd
3cfc8e27
3e345ace
3ccecf3a
bdf6a968
bdf5e858
be1343c9
bd425679
bcc894cb
bd020b4b
bd4b0c9c
bdc806e3
3e2eaf38
be4861cb
3dea0a26
bdfafd50
3dce6619
bd8e969b
3e2fe7de
3e043246
3decfe14
be334ae8
3e1d890c
3d916635
3e34f5a5
bdfc7930
3d992ac2
bb0b610f
bd9d6fea
3d9ef1a6
3d9d6d00
3e0c77d4
3e099f01
be34081e
bdaaedd6
bcf04c83
3e255af7
3e1ed937
be03c8d3
3d8351fb
bd6fe667
be10fb3e
3c9510e1
3da80a87
3dd62f36
3d3afb50
3cfd616e
bd281625
3e1ef329
be1bde1a
3dd4bbe8
bd9c5e4a
bd00cce4
be152aa1
3e067956
bd8bfbb0
3d16715a
bda8f863
bd1835bc
3cf0e605
3e37af42
3dda3677
bc6df7ae
bd1cf8a3
be35b29b
3e01f33c
bd6ba2ed
3d858c70
bde39026
bd7ceeb1
be1dbeb8
be041311
be184a43
3dc44fef
3d811007
bdde6c48
3b1e929f
3d9a7ec2
3a9bd36e
3dcd76e5
be2a3e47
3e346ee3
bb1483d0
bdbe08b3
3d97a82f
bbf1725a
3e24a60b
3e211d86
3d8f2663
bccd8890
3c9f7b24
3da11d8f
be25096d
3dd9eab6
3e2edae1
3e26eb9e
3d85c090
bd4baf0b
bddbf762
3d6a0a2a
3db35bca
bb2ca5b5
bd7845ad
bdc1e9d1
bd40c6aa
be0dcebb
3d10aa5b
3cbc4772
3d305913
bd5df13c
be2cf13c
bd7d1c81
be37272e
bda98f78
3e091190
3d3206be
3d07fbff
3c21c174
bdf24d1c
be293618
bdc6b45b
3e512432
3d7cfeed
bd28b184
3dfa6a40
3cb19b09
3bd1a797
3c46d6cc
be31cf8d
3d75f595
3e0f94a8
bd95a262
3dd56573
3cbd0bb7
bcdfb7fd
bddaa232
bdff8d27
3bab90f2
bdd34766
be080835
bd7d6c0b
bdab0c05
be241e73
3d99a264
3dec0f43
bd364304
3e2c7849
3e36f6a4
bd2b5f82
bb1a9af4
bdfffcd3
3df78b9e
3d82611b
be081031
be01f0ba
3dd2c280
be2bd835
be0ad50f
3dd56a10
bd2b5cba
bd5164ff
be1e53b0
3d0ab286
bdb9f4af
be3e1a61
3d546005
bcd09bf7
bd00966d
3d4120a9
be1d0f4f
3da9e0c8
bd60d02a
bca0667e
3e494eb6
bdd1b25b
be017598
bcc2ba07
be267a40
3e14899a
3e11fec6
bdb79d12
bd7d332e
bd921364
3d46f6e7
3e10b166
3e135a79
be3245c3
3e46b10b
bdffa321
3d5338ac
3dfff3f7
3e04c3d8
3dcea9e0
bce7a71a
3e36b308
3d71f071
3d0d942e
3cbdc6f9
3e34ce31
3d64f5fa
bdb56d2b
bc65bb4c
bd10f110
bd3815bd
3ca91298
bcbc2dc5
bd7c4d93
3d6c78dd
bd5db198
bd9fa699
3dda54d0
3e1b8948
3d5d9b0c
bd9fda0e
bdb889c4
bd664f4b
3e1a88b3
3e3a4dc9
bc35085e
3dfb2329
bdd4a61f
3e24107f
bd2a95c4
bcccdc86
bd9ccc24
3e143908
bd119c69
3c76d026
bb5fe0b4
3de0ef0c
3bef147b
bdafd9a4
3ddeec87
3deee0ff
38c11f5c
3d4c22d4
bdbafc90
3d005039
3e012f87
bd506334
3c41380d
3db78fa1
3e195fdd
be29b1ed
3d22e5ee
3dbd86e0
3de17e44
3c420d01
3dd8ad29
3d8b0d7f
3de1e881
be2092f9
3d2bb853
3d903bcf
bd5731cd
bd9a6341
3c84445b
3ddfe044
be23aa46
3b7be130
3dd6c9f7
3e07c737
3e173b4a
3e1e64a4
3d214766
bdbee77d
bdec794b
bc460302
3d948522
bcd848f5
bd9c7790
bcc7db50
bdc97079
3dbd7e04
3d445c02
bd84f530
bd0b83b5
bc6e0840
bddf74b4
be044bea
be0e7e28
3df5b3b3
be39c276
be0f7af2
3c8b5cda
3e17ba24
bdada839
3d7323ed
3dfef541
bd85e7f5
3dbeadeb
bd6db18d
3ceac8b7
3df45e10
3e3c92b5
3cc7f998
3d56dac8
3e0979d0
be1ce3a6
bd01db46
be08801e
be4e5f79
bdd49e98
3ddbd66f
bd8f7c7c
3d03b275
3e1a9ed9
3db7e4f1
be1f01ae
be288e92
3e1fef79
be16568a
3cee4ddb
3c4e557a
bdf4eb81
3e1c551f
bded915a
bcd7cd7a
be353ef1
bdc35acb
bd653038
3de3a678
3dd3f493
3e16baf3
3c77ebc9
3e25f2df
bcf332c4
bde213c3
bc1ca0c2
bda82ada
3cc4da6f
bdb88498
bd1040c9
be1b448d
bdb55c8c
be1ba13c
3e00168d
3dc66f60
bcbaa120
3e2b355f
3d8c59ec
3d963546
3d105814
3cb1315f
3c27cf63
be34a000
bd9dd88b
3d6ace1d
bdfbad0e
3dcb02c8
bd953948
3d8e8d49
3b84a8a5
bd4f0730
3dfe3705
3df45051
3d263fec
3e0d720a
bdd93756
3c2b6b67
3e002316
3dd98082
3e3550d2
b8960a04
bdae8830
be0a92b0
bcfc6064
3d46426a
bc9f00af
3b975792
be11e2cb
bce62375
3dd440ac
bd962d9b
3dd43a8d
3b92e187
be1e3ffb
3da5386b
3e221dd1
bddb58f2
3d8ad19f
3d47abe0
bdbc1574
bce27b30
bdd61695
bdc59a78
bd84c340
3d818e86
bdcff9a1
3d9b4196
be2a2dc9
bd3a6eba
bdff98ec
3c9cbaa9
3e3afc0e
3e25db4e
3e27275f
bdf4d5ee
3cd89e0e
bc93aea3
be0f13be
3c1121d5
3d61efed
3d8c77a4
bd87e3d5
be0b9edd
bca0af3b
bd3595a1
bce566b6
bd3920d4
bcc8ce43
bd3f4ac7
3e29d89d
bd59b5cc
3d82be60
bcdb60f6
3e1f1c00
bca91293
bd701e83
be259998
3e192b07
bd8fb9a9
3e169003
3df16520
3d3095fa
bd53ba82
bd707a97
bdc3a6e3
3e3c91a3
3df101ea
bde094b2
3d841f2a
bd135584
bcc36514
bd617f82
be189dfa
bd626d3a
3c733678
3d203fb0
bdec9d6b
be387bfc
bd8d67ce
3d8dedb9
3d96ab2c
bdccc2a2
3e113aa8
3d59123c
bb2d6a0e
bc85a340
3b0fbd03
be2410f0
3d9d0ffd
be465a3c
3bd50737
bc062820
3cf9ffa6
bdf9d02a
bdf8b1d1
be2d8aa1
bd88a0c1
bd9406ed
3db4a7ed
3d328e34
3e045d1c
be1844aa
3e16927d
bcf459e9
3e26fa7d
3dc8c699
bde841d8
3e336549
bc6782b8
3bb79f96
3e2b105d
3d7c2e24
3d32e0eb
bce9562e
3e3756d2
3d9fd852
3b9c3dea
3dc48900
3c2ee0a7
3d1867f3
3d84bbde
bd849df3
3da62181
bd823bb2
3d154223
3e002399
be2e1336
bdc37667
bde46bb8
3e006242
3e0d9d46
ba80b9a6
bd359379
be03c739
bd6ad81c
bdf92b50
3e46bd3b
be054728
bcd76364
3e04f504
3de699f2
bcc13556
bdfbdf25
3e0a878c
bd477eb4
3e0d023b
3df1fb35
3c1363ee
be0ec0f1
be0393a2
3e1b4962
3dfde0df
bd8f83f8
3e07b153
be27d026
bd238978
be27fd62
3dccbd41
bdd6fba4
3d8abb2f
be31ab5d
3d4eed57
3d95c6b4
3d4179b4
3dedf6e0
3cbb22f0
bd1bb4eb
bbdec6e7
bd5eb015
be1f40c9
3e0e97ad
3da0e0ff
3e15eb2f
3d8f335a
bccf16a9
3e0f2721
3db1a69d
bd9cec94
be0cb74b
3dc916b0
be2f1edf
be0b6e28
3da6cf54
bd01da84
bdc73a7d
bda60dc3
3e2af225
3e1e8fa3
3dddd1a2
bd301b0a
3e231e5e
bd050488
be0dcdd2
3e239df9
3d959095
3df02963
bab60864
3cf9c553
bdd518ce
3e22413a
bc001886
3e34a5de
be3de4a6
bd151509
3e33f791
be0a03f8
bd80fbf1
bddf48e8
bd46cbe6
3d87e492
bd86c1fa
bba0d5b7
bca7fd94
3d80ff71
3e088be4
bd845a16
3e53d7be
bd359641
3e171b3b
be30d8e7
be207937
3e0405e6
be1746cc
3d03398a
be0cf09d
bd783330
bd67d75b
3de9bae2
be03a3c0
bd812cb1
3d54da0b
be217af9
3d8feeca
3da0d9c6
3e3aa0ca
bdd66b2a
bd99007b
3d028c07
bdf3fce0
3d61c5ee
bbaa771d
be0bdd31
be2781f5
bdfa7505
be2e69c0
3e094e5b
3d1b5e64
3da5081c
3e292240
3d0ad2ff
3c9b56a3
be10b215
bd6378eb
3c2277fa
3e06415f
bde7bcf2
3d809060
3da412d1
bdf0d1a7
ba36d32f
3cbce48a
3cbd296a
3dbd40f3
3db1a3e3
3e362018
3db92cb5
bdc5123a
bc77f16d
3dfb2717
be20482e
bdc2597d
be19b6f1
bd8c24d4
be3142f1
be287d6b
bd82556e
bd722966
bca8b901
bc619f8d
3d5b19a1
3dea3cc2
bdc1826e
bd96dbfe
3d1cb0d5
3cf00c6d
bd8f61f5
bd10f174
bdcf5896
bdfae1ff
3dfaa424
3d92781f
3deb40dc
bd024fd2
bbc22fb9
399b70e6
bdb735b3
bdeb86eb
3d2f48ed
bd4ea2b7
bd565ff6
be0df869
bcfb43a9
bd633b03
3e1fb333
be05c217
3c02ad2b
bdc5564e
3cd871e0
bd2b9c42
be0a02e7
bd694a98
bd9ee4f6
bd90b4ed
3ac20188
bdfa0f6c
bd2aff93
3ddefef4
be07e679
3d399275
3cce9e04
3e0d28eb
3dfb5b95
be1407c9
bd5a6fb2
bcdb2ccc
be1d2bdd
3e1ff6b5
3c897172
bdd5c7ad
be2a1a1c
bd9d84fb
bd96a6cd
3dfbb1a0
be0991c9
bdb12257
bc95509f
bc6b06fe
3d3df78f
3d4abda3
bda5c7d5
3e1593bc
3cb17bac
bdea85c7
bb19cddb
bcb12abb
bb1eedc6
bc09d639
bdc25c1c
3d76d0a6
be1a0519
bd8d7cc6
be396090
3cd5fee2
3d68d70e
be21893a
bd4d63e6
3df5b477
3e210579
be270268
be0f0445
bd97a725
bda082eb
bc98ce4f
bd0ea68e
3e11e285
3e15128e
3c4cad41
be0be0d9
3e2c8765
3db921bf
be32f66a
3d89f7e2
3e28cbec
3d5fc6c0
bdfff7ea
3d6000e9
3db0758b
bdd49949
bdf1bf0f
3e00e008
3e50b4df
bd81910c
bdaff843
bd64e37d
bd385b77
3e0bc48d
3d88b9c0
3d628a1e
bd6417e5
3dd28112
bded837c
3aaa4cc0
be25cc03
bd2758cf
bcd5336a
bde9b574
3baada04
3bb07d18
3bfed27f
be2c1836
bded192c
bda59b49
3dd7bac0
3e2486ee
bdd4f873
3cbc8c2c
be16c3a2
bdd7e48e
bde2de8f
be35d3cf
bcc19b06
3c6281e2
bd9dd743
3e4c58dc
3dc10e88
be0b8955
bc7226f6
3e064e8e
bbccbef5
3b0f2cb3
3e085f72
be299a87
3e198cec
bcf0ea72
3df4b390
bc895261
3b10ca32
3d387c37
bdda72fe
bd5a6eba
3d843613
3e12a91f
bdab70df
3da5d695
bdf9ebec
3e1063db
bda2bca6
bdf172b0
3e1671c7
3dc36440
bdcb4353
3c8cc233
3da55154
3e0271d1
3e16584a
3a9d3ab8
3e2a723d
bbe54bb4
3d7b94c7
3e08691d
bd8ce9d1
3e4a69b7
3e12316c
3e067f2f
3d9ac235
3e39f691
be15afbe
bbc0f198
3dfc810d
bc74f16d
bc9f7dd1
3de600d5
3db55ccb
3c088dbb
be615328
3d12ba17
be1c0ee5
3e19949d
bdebbd01
3e4aee24
be34c471
bc477718
3dced8e7
bb947f62
bb8a5f4a
be0a8d99
3cccdc75
bd0f64c5
bd9f7758
bb93ff8c
bc92782b
3dcdff7e
be0571c8
3e27f626
be3a40de
bc14409b
3c4e745a
be18cc25
3d3c0558
bde3c690
3d8f74ee
be0571f0
3e1c6a97
3d55fdcb
bccfe0bd
bc8f1e9e
3da5cb75
bc96ed87
bd389ca8
3e43efb0
bcf061ed
b98f7fbf
3dfc1b64
3d0587c9
be12527b
bd4ad668
3d71ead4
bded8959
3e1789ae
3cd8002e
bd192299
bc84f040
bc06a1dd
bde23e1f
be1cc86f
3dd00d52
3d8782fa
bcf1072f
be0f01a7
3e16b8bd
3e006c46
3de8745e
3d390c82
be2775bf
bde20692
3db377e9
3cc88a32
bccfbee8
bdecc20f
3e1c307b
be1e858f
3dd4032e
bdbfebf6
3da575ad
3d4f2d46
bdf95eee
3e4e6759
3e341553
bd437e24
bde617c0
3e0115f9
3df2afa6
3c407fdd
bdb6b709
3d5ed954
bc446540
3e0e63bf
be2951e2
3e0b5d7e
3e12df9e
3e06d9ba
3d9ce5da
3d5db99b
bd7fa08a
3d424481
bdca242d
3e1572d2
bd47ea8d
be28adcc
be0aec9e
39548b0b
3dcbb605
bdb4009d
be2fdc20
bd7e3da2
3e2256a5
3da6eed5
bde0facd
3d0bbccf
bda31b8a
3dca4305
bdc0b538
be1335f7
bd712ef1
bdbcbed3
3d292c61
bd52d483
3e065975
3d8c0aef
be17db1a
bcad924d
3dc2f728
3beb41cf
bd8ad328
3da83d54
bde86527
be1d094c
3e4a45a1
bd416782
3d24e70b
3ddc1f4d
be11a6bf
bd6309b4
be265430
3c95c2a6
3dd2bde6
3ce53ca8
bbc8cb16
be171bc4
3e466bda
3e195699
be4f621a
3cea3c7a
bdcde6ba
be35c8dc
be16d36b
bd6359fb
3d02fb5f
3e0a69e3
3dde37b2
3e12d139
bc04859d
3e43920f
be2e2699
3dd6aa96
3c883520
3dc25862
3e28f96c
3e20afcc
be21a78f
3d8a3d94
3d64191d
3c46d9c6
bdf84a82
bdb6248b
be121087
bdfc5d87
3dfc9122
3c4474b5
3d15160d
be1d5fbb
3d1191e6
be03561f
be52a3d4
3d2146b6
bb6ee3a8
3e3a34c3
bdec709e
3e3634c1
be3d40b3
3d9790c7
be16659d
3da63274
3d82dc72
3dd6545e
bdcd7286
be0fe703
bcbd1723
bc40d68f
3e3a3860
3d5b8461
bdc5133b
3e18b38c
bde7a7a3
3e387660
be33f5fe
3d968273
3ce482c8
3d9e281e
3e2af37c
bddee13f
3c045542
3d0c34f9
be1df698
3e3def1b
3dd980fc
3bdab561
be1187a3
3d4aec44
bdac746a
bdd61417
bd9c05ab
be2363a9
3b3b00e2
3d82de62
3e104b3f
3bac7468
bbc8bd68
3e04cc6b
3e0c3698
bc8a4d15
3d8e775f
bb49f3ea
3db81132
bcd8b3b3
be21978c
3e1a27a8
bd343b72
3dc1fa9a
3e1a9212
be32d4cb
3db6db76
bd805ad0
be35520e
3c6a8806
bdccbca3
3d4c90cc
bc316917
bd3ba28b
3e5f2d8c
3e1cbc84
be1ba7d0
bdd4f2c8
3d823e62
be3ea9ae
3e1cabb6
be05f616
be1c7f35
bca752cb
3d5a3077
be2f7915
be33b153
3da9f09e
3d2e6f8c
3e169fbe
bbab391a
be07a097
bd296e8c
3e20de6a
bc72aa3c
be1e036d
3e121f8e
3b9cd8be
3d9fe64a
bc669688
3cb31abe
bc6df804
3e16aace
be4c42ba
be0df589
bd933c82
3db873d2
3dc78d06
3dd20e90
3e21aa72
be43e235
3db1e27e
be210f8d
3d0afa26
be0777fe
bdfa2426
3d0dc8c4
be5524c5
be1fe503
bd9b66f9
3e22560d
bdb3f400
3d6bafdd
3e21259c
bc0dc668
3e0808cd
3d29f553
bd9ec0f2
bd06ff9f
bda655ca
3dd7f6b2
bd497247
3d6e5722
be25c341
3d1113a8
be2db838
3e23ea47
3cda77a6
3e25f40a
be19da41
3c8c3854
3b166c24
bdb549f8
bd226d72
3e468d70
3e35dc2d
3e14eaa9
3d26f1b1
3df81af9
bd288ee0
bd1025e9
3d23e413
bdcbb7c3
bcfa9faf
3e45e70e
3d447f3b
bdcbd712
3e0844e8
3da239c8
3da0db04
bdd3a2d7
bde48095
bdeedfba
3c0f4c37
3da546cd
3d7fd0de
bde98177
3d25377c
bd1464ef
bc9dceb3
be16f6e9
bdf660ff
bd2adb75
bddac0be
bdd086d0
3c255f13
bc2ef48e
be2ad5d4
3d09845b
be351aae
3d5e2e2a
3dbd564e
3d037861
be082f02
bdf7d47b
3e34e5a8
bca6da91
bc45867c
3cfde645
3e28eee9
3da1d89c
bddc91cf
3e1529c3
bc16753c
bcacf2c1
3d67850f
3af92bdc
3e2751b9
3e401e08
bdd11bc7
3d96c1da
3e0ea522
bd9828fc
bca63ea2
bdacbe2d
bbec42fb
3e06ee60
3d073b03
bd4af397
3e11b864
3deecc79
be0d8694
be1d0ebd
bd08ee40
bd7f8b69
3cedc3a1
bd9d5a3f
bd4629ac
3d930761
be274516
bdaaa45d
bde68d77
3da70017
bd3bb37e
3db84a12
bd8f63bb
3e134509
bd0f5992
be262c2d
bdc97093
3e2e5895
3da3d0ce
bd0112d9
3d048470
be0b8213
bdcb1fa4
3e13f4c3
3d64b42d
3d12729e
bca99846
be2249a5
be2750db
bd83ea1b
be223f37
be13c7b4
3da2ddf0
bda4c35e
be09d307
3e1b9b79
3d3b2558
3d2f1788
bb6f1c9d
3e1d710f
3e167c92
3e50c7c2
bcac76e3
bcdb59c5
3dba2c35
bdab7fcf
3e40808e
bd48b525
be150bd2
bdd40b55
3d1ea2f1
be5043c5
3dc0a115
3d807aa3
3c881652
bdd9c5c1
3d1969a4
3d28a36f
be074092
be2efb24
3d73e31a
bde38eb6
3dd7610c
be09a1ca
bdb615ba
bdfcf16a
3de02b56
3e36dbda
3dc708e8
3d473fc1
bd6320ed
be2878ca
3e21543a
3dc0cc52
3e2c7f99
bdb49424
3d99143c
3ca52c0a
be354daa
3d8a902c
3dd2697b
3cf03519
bcf0909e
bdf6e4e3
bdbaa5a1
bdaf78de
3e19e725
3d22942e
be27cf4b
3b324977
3ddcb82f
3dc04bca
3da90fef
be07321d
bd07ba91
3e0f864d
3cc4c261
bc3efbe6
bd9fe88e
3dda1886
3df7befa
bdf89e8a
3e08fec8
3dac8ffa
3d8351db
3e26a8b7
bb9b23ee
3dd49cc6
bd6e4394
3e071a82
be01f3cd
bc060df3
3bddae2d
bde15081
be00291b
bcc2568d
3dac04de
3d9ff9d3
3e12bc30
bd28ab7b
3d1dd056
bd2e05f5
bd6a0316
bdb832e6
bd263228
3def1397
bd8f59ac
bda53112
be431046
3bbb4312
bcd21220
3d98c058
3e01c647
3e11bbfc
bdc35a28
bdb06b1c
bcf42a0a
bcc039d3
bd71afed
3ccd715e
3e1a4769
bd8ba383
bd286209
3b88b4e0
3d504d9d
3d93fa2f
3da9c42f
3d2638a6
3e152de0
3dcc89ea
3e08ad52
3d05f7d7
bc8c1354
bdae615f
3df31e8d
bd0273d2
bda6cea7
3c204e18
3db72b40
bcb20ffe
be484523
be267d13
be06d7f9
bdfa53df
bdf1252b
ba7195d9
3d1dc3f9
bd560dd9
3d52d1b3
3d4e5de7
bd3b1d2b
3dfa345e
bdd8d590
be0df7ab
bda2ff76
bd9b21da
3be0acf3
be34555b
3de6ec9a
3dc304dd
3d7f3650
3e3ff6d2
3b17a360
bdfa301e
be0d4446
3d114e76
3d10ec15
3e13cff7
3e11b485
3e0a01f2
bd8a1cdb
be1e0449
bdadc7f7
3dc017fb
3dc76d96
bda65212
3de567b6
be10c5b1
3e474838
bc64cd5c
bc2a83f5
3dacec2e
bd22e550
bcc9f46d
3df4b950
bd0e4073
3e122508
bba3ca81
bd658066
3e16d36a
3d3d1b67
3d00d7ad
3e0a82d4
3cc2fa4e
bdba5d3c
bdfb13db
be16aa9d
3d0d39c6
bcb388df
3d76bc07
3e00e3a4
bc9f4fcb
3d89ed81
bc7b4374
3c9c09ea
bd8e1b7f
be0230fb
3cb05741
bdad90d8
3e0f07b3
3dccdfc3
bdaabda5
bdc65aeb
3db00c22
be218734
3dea96c2
be287fab
3d5a8b8e
3d8fb6d7
3e42fa07
be1833b9
3e15b750
bd279a19
3ce39bd7
3d6c801f
3d2ef875
bd90c4aa
bd138ac0
be0ef9d0
bdbfdc2b
be0de1dc
bc906734
bd93e0a7
3d504efb
3d220241
3e1ecb81
3dd376a7
3dab884d
3e259df8
bb28a083
be37e7b8
bc0e6fa3
3df63e65
3de55ef8
be0a5da6
3e239a97
bd966b7e
3dad602c
badbf0cc
be42f1d4
be1ac857
3d92f5fb
3e474555
3cba3c7d
3d0eb7a8
3d7124a9
3defef11
bdca0911
3b6d95f5
be454d80
3e291b02
3dc10d1b
3dfe630c
3df4bf7c
3be53332
be42dbb3
be2f0f4a
bcd56836
bd84e98c
bcd95655
3db11a5b
bdfad6ca
3e415eea
bdd5d914
bd76ca46
bd973022
be0ead41
bd07d1c6
bdc066bd
bdd6420b
bdf9117f
3e1a4640
bd22e096
3dc76520
bc798103
bdcaa466
bdfb1a41
3e16cb67
3d0740cb
3e0dc43f
3dfbe6e7
bd847e45
3e13bff2
ba054e72
bdd96910
3e2c0e55
bd6c4022
3e17ba4a
3e2179a6
be16f35a
bdf2cbd4
bdd5110d
3e05cd94
3d8dd530
be07bff4
3e29cb9e
3ddbee0a
be425410
3e09cde5
bd9cfe62
bd83a324
be0e4e0b
bde9c5ef
3cc96df0
3d6f1a5c
3e2075a5
3d04ba09
3d04167f
3e516707
ba8885ab
3dc4d016
3e2e82fe
3dbf35c5
bdefdc76
be5a72d7
bda45603
3d9a6fbb
3e4bf375
3e1bd8a6
39edf5ec
bda0a7e2
bd34bf51
3c15bb5b
3e29aef9
bd3dff94
3e4a6d34
bd345928
bd96f293
3db20def
3e2d292e
3dd93d4d
bdf1f363
3db4cc61
3d594e67
be4df8a7
be1ab257
bdb11b2e
3cbcfbbf
bde8058f
3dbefed3
bd34e29f
3e080660
be3ed010
bd8d2c36
3dc6b931
bc125723
bdde6f15
bd70e619
3d132879
3e092e57
3de8a2e0
bda59d55
3e59fb4e
3e15ff25
3dd906e1
3cf11e09
3dc03087
3dce69a1
be14254f
3d2c4798
3e0eba60
3e30c0e6
bd6845c8
3c33d6f3
bdea2ac3
bdc33594
be18504a
3de87233
3e1357c3
3da7291b
391015e9
3dadbe95
3e38cc7b
be4f1f23
3d0b3afe
3e4b01de
be05cf98
3e29ca42
bce69395
3e094ece
3da266ac
3dcd8c81
3e29849b
be495a6a
3d943243
3ce2089b
bdbf5f0a
3b38045f
bd27f436
3dfd265c
3c347e75
3c957830
3d811f94
3d709c01
bd868f4f
3e004ac2
3dd10fa5
bbb30333
bdfebfa6
3d7efc21
bdf3f8fd
3cd81d25
3e04cd86
3ccf6faf
be04510f
bddd78b2
3e09206e
be3c3b6f
bc8bd52c
3d66c0e4
bca08763
be1f397b
bda0b34c
3dc73d2b
3bab289f
be1b18ba
3e082af4
bd691ed9
be19b341
be187570
be438a7e
bde4769b
bd9dfb52
bd527981
3e0ef48f
bd97564b
3bb74ce3
bdcecc09
bd295d93
be38d110
bd7e3fbd
3e3cb6cb
3dd09719
bd5ef427
3da2bed6
3d3e4a23
bc88acd4
bdcf982b
ba68a4d6
bc0142ad
bdd4a6fa
bdf282d9
3e1de9b6
3cc1e173
bd882973
3c938b01
bdf3775a
3cad49d6
3cdabd25
bd0b39d1
bdf974be
be177481
bd625a45
bda2ed5f
3dba3c83
be1518c2
3dea9e59
3e11c3bf
be0537b4
3e475b74
3d98d8ff
3e02f273
bdebeae6
3da1caf3
be0e6222
bc9d924f
bcd235f9
bd8147d4
bd898223
bd538e30
3de8b011
3aaf2a23
be146519
bb64ff4f
bdd6eebf
3d4ca549
3d07a26c
3e1021e9
bde10771
be044ee3
3df2425e
bdbf6449
be2da285
3dee6409
bdf8c79d
be245a27
3e0ad827
be322bd3
3da6cdf2
3e25a56b
3d88514d
3d0af249
bda4690c
be37d3c6
3e07983e
3b28ba19
3d9fbe52
bdbea92f
3d2717d7
3db6be7a
3c2139af
be0d1174
bc1e0654
3e0619d0
be006b8c
be151955
bd286599
3d209133
bdb5e0d4
bba61907
bd60fdf2
bd6373a5
3d281fb0
3cd80a93
be0eeebf
bdc2d4d1
bde159d1
3d21a348
bd0cc5e8
3dd810dc
be16be98
3e0ccfca
3ddb3f1b
3ce0865c
3d17fbff
bd8bb6ca
3d03ee45
3d3b23e6
bc29da5e
3dd1d761
bdbb1ccb
3dee9d14
bd6e2182
3da6a33d
3da29431
bd52f482
3d2f65fd
3e1e1e67
be04aab0
3cee17a0
bc20b976
be3996b3
bdba3776
bd52d6ac
3c58c4ef
3d1faa6b
be0cf142
3df9f748
3e0fa7e3
3db84b33
3e09552a
bdc211ce
bd0ca2ef
bdbe61ee
3db62f27
bd32e07d
3c316907
3e2f1b00
3d347416
bd0931b3
bde41711
3c25d490
bc085740
3e120185
be20d73e
3d71901e
3e0d83e4
be03e02d
3e21d10e
3e3e8290
3d81fc7c
be0b80bd
bda75289
3d351c8b
bd1508b6
3d1e62ea
be03dc7f
3d242997
3dcda38b
3dcf49a5
bd38a1c0
be25daab
3d51ba36
bcadd6bb
3df227e0
be1ba1bb
bd880eea
3a42200c
3e0e952b
3e21860c
bdc20ad1
3d66dafc
bc23d3a5
bdebfa3d
3e2fcfd3
3e01f26b
bdd09a7d
bd61f781
3e1d5c07
3e0bbe29
3db3c284
bdd93157
3d9c9720
be3140a1
3da8b7c7
3db61d70
bddb6434
be3a3571
bce24130
3d1cc831
be1938fe
bc385599
bdef091a
3d16c630
3d31bb2c
be178a0f
3d0475fc
3c25e119
be38a272
3e0c0c3a
bd5f1cd1
3d953b94
bd6bfa05
3e006f3e
3e0e928c
bcc5b783
3db7dd96
bdf1f135
3dd0c998
3d96a96d
bdb4f622
bda5f815
3d3a6585
bdfdb54f
3e1b1bf3
3d431804
bcd39ee3
bd32ce01
3df1ea74
3e15dd6a
bddcee41
3cfcecd4
3dd43def
3e359d07
3df3bf6c
bca88bd1
3cf7002e
3b2c2cd9
bdffad95
3c0f968a
3ddf36c2
be2d9cd3
3db3409e
bcd02ee8
3db40dd0
3d78d96d
bdb0b1f6
be328dd2
bd804056
bd9ac66d
3da8b9aa
be0802ee
3c3c5c96
3cda09e8
3da1de2e
3cac74f8
3d25b899
be1c42d4
3ca2c880
3e0d49dd
be308c29
3d8d7d06
3e0e4e27
be0eb88b
3df14747
bbb7cd01
3e0cda3e
bdded007
bdc41747
be36323b
bccb5a23
3d3f80f3
bc6a8a33
bbc18203
3d9a1948
bd340509
bdac181f
bcf5e826
be24aa83
bd2d13cd
3e08f775
3dece59c
3e37454c
bdf5032c
bd69b735
bd9cf9a8
be08149d
bc81ae5b
3c98384c
be0c9ebf
3c9d7340
be1bcbb4
3dc2cb17
3e0a476e
bc5998fb
3e238f26
bb349b2e
bdd857c2
3df06bf4
3c989b72
3d721c39
3b896642
3da4a3f0
be3b5397
3df15d6f
3e075cbe
bdb77fe3
3e0c8ab4
3de22312
3df95ac1
3e38ddae
3d8744ab
3dc25181
bcb2ccea
3e1f5ca7
bbec338c
3db8e793
bbff2176
bd7d3b68
3d240f0a
3d31d484
bdaf8946
3cb328da
be101223
3d93a934
3e15fb21
bded3107
3d6cd0b3
3c769257
3d1cf6f3
3cbbc806
bd624537
3debdcc6
3e0091e7
3e27161a
3cd08f6b
3dfd250f
3e0f01f8
bd28f37c
3d3bd04a
3dccbe43
3e28cdca
3de31c9e
3dc47064
3cafce5b
3da26bfb
bdfdef76
be1e13b8
3dfedcf0
3df834bd
3dc493a2
bccc329c
3d32dca9
be20313a
3dd0717b
be084ffa
bd13cd70
bd939bcf
bc70d360
be2bbe14
bdba023c
be190c3f
3dd5c3b8
be298c72
3d3d5d7c
bd377d1f
bd5566eb
3d36fb80
3da640a1
3e15b61d
3b8af669
be0fb48d
3e0a908c
3d93e4fa
bcbb3c98
bcac1656
be0ed729
3dced104
3e23ae5f
3e30c3d7
bdedca66
3daf4af8
3d991d97
3ba58130
bde88d20
3d4d2ab2
3e2ae6c1
bccd4f6e
bc2088b0
3e1ec77e
39ae9ede
3c189224
bd588bf9
3c8709ca
3c2d1533
bdf47e6d
bd7ef6aa
bd359627
3db9a11c
bdf8deba
be3fc0bc
3e4249c4
3d3e0941
bd51e7de
bdefb834
3ca871de
bd23c36f
bc31c9a3
3d9f2ab5
3da2ff09
3dc8b748
3d58b36d
bde4617f
bd7fee88
bcdfa084
3dc59ebc
be44f745
bd7eab8e
3d9c401b
3dbf89bb
bdc0b331
3e230a60
bcffdb57
bda16cf9
3b920606
bc006f5d
3e05bd46
bdf296c7
be08c832
3dfbc5e7
be02e4b2
3dc524c3
bc1251ad
bdf64341
3d84c1fd
bd8a62ce
bd290faf
3e045fcc
bdff6149
3d820334
3d4e63c9
bd8a1a5d
bdcdaff6
3df1cc88
bdbf63bd
bc870fce
3dd2ef11
3b49c899
3e39ca1c
bd430ca8
3d168a0f
bda0ac06
3d9249dd
3e112ea0
3d28a0dd
3e04aa09
bda4db45
3d9bd851
bdf2aa9c
be29d5ab
3e2c71ea
3e25e941
bc902ec2
3dea4ceb
bd4f792b
be0871db
3c968e2f
3e2c0cfc
bdc0be26
3d9a2a67
be15f639
be22e919
bd013fd4
3d6c9fca
bd52ea17
bbf7f663
bd1b23c7
be0340d2
3de2a38b
3d276ff2
bd79892b
3c11fc94
3df1de33
be0357c4
be13b1fd
be1f8095
3de83fd5
3d99ce20
3c692315
3dd3f0eb
3e2b6106
bd89d37b
bd9f828b
3e1b77c4
3e2e8841
bd30cf4c
bdec44e9
3c54eaea
bdc3976b
bdbb2979
3cc09c76
3d967e79
bcdd20ef
bdb49423
3da84116
3e1babfc
be3afc5b
3d86b9ee
bdeb9ff7
3df0a4b6
bd1fa72f
3e0b9d59
3d137bff
3d0f03a9
be215e89
bdc53cfd
bda035ea
3dc60870
bdc848f2
3c7df64c
bc972550
3d516f3a
be2e014b
3d1d1df0
be227785
bd0dcc69
bdc6e6c3
be0cbbad
3d35c852
3e14f857
3ceae618
3d871cc3
bd4fd48d
bce05988
bdbb0e54
bd23d743
3d98b10b
bd3d187a
3da07732
3e27acb9
be335d18
3e344926
bd66f0c7
bd9c3ed9
bd6d2dd7
3d517c3a
be2a2db8
3d70631c
3e1d845b
bdbeb3e6
3d09db5b
3d20ffd1
bd33eaa0
be1a80f5
bddd4ec9
3d12bc1c
bdf7adc8
3df50b04
bdd5b16a
3d9472cc
bd7c994f
3e2830c3
be1c9adf
bdf97a97
bd7c3574
3dbee220
be120a09
bdcd70e8
3e4573fe
be25a543
be39dafd
bdbb14ac
3d73e84f
be14f172
3d5d3ec7
3d832e7d
3cadf0f1
3e2503fe
3e2a4e9b
3e163178
3cf398f3
be2ad8ff
3d45239d
bb00fbf2
be0b98a2
bae55499
bc8b9a5d
bd9c095e
3d5e3287
be099319
bd3243f8
3d45663e
bde7e1e7
3d81471d
bd2f3d5b
ba497b3c
3da9b38c
bc67ae28
3d7d2f18
3e4318de
bda76342
bdbeaa66
3cb19dc1
3cc403f1
bdcb98c1
3e196fa5
3e00e978
3e0c784f
3c7d7f11
be1b4cfb
bcd394e3
3ca5165d
3d3541b7
3e33dc8d
be3e71b6
3deda5c6
be7113df
3e2e429a
bce33e01
3dd2530a
3dc647a0
3da2900d
be09f9bf
3e0afd0a
3db44dc2
be12168d
3e2d6497
3c07ec4e
bd95a55b
3dffa2d9
be32a65a
3e0c631d
be27d9c9
bdd7e3ed
be17d8db
bd1bf28e
be4d893f
bd946980
bddb8e4f
be0865d0
3e1f303b
3c263b1e
bd513c86
be3083b5
3dac9a6e
3c72ac81
3a8643e8
bd820662
be236e7d
3e2c6432
3c8e0dd7
3e03880d
bd7d42ee
3cf4d36c
3e1b7d99
3d0a24df
3d420ba1
3cd917a5
bdefba71
3dcea5bf
3df5d642
bd12fcab
bddb9074
bde9d9e1
3d21f7ac
bdf30105
be125274
3e0aabf3
bddb3e0d
3d969184
be215cfb
bdfa819b
3d464ba2
3e04d9a9
3e0419ae
be08d372
bde86c19
be2f39a3
bc292df4
3db3b916
3df5d332
3dec7b10
bda4c99d
be383938
bd4a3450
be03fd21
3df79594
bd4e2138
3e54d8f7
bd4ff722
3d1ebd80
3e0387a8
3cf0a33c
bda1e6fb
be43aa40
bdef65ea
bd49e447
3e26a49c
bd81177a
3d88d784
3d26fa63
bd1544af
be06f2ad
3e2a7c63
bd70c7b5
bd982044
bdc6ec69
bca0e97b
3cb0344a
bd5671ee
bcec37ec
3d83dcf6
3e311ee6
3e31c921
3c4627c9
3dcb7e05
3dec4b10
bd88368e
3d4cc12f
3e362879
3d9b2e11
be106ced
bdd45326
bd2647d8
be450581
3dd88029
be1839ee
bde7580c
3e18647d
3e1cf866
3e3296d2
be12dcdb
be3ca70a
3d2bcc8e
be4728a8
badf2489
bd482d73
bdb93124
3d8c300b
bdfd2ef6
3e0501bb
be2a0e4d
3d9cfc14
bdef065f
3d7cf1fe
3b8fcb2f
3db13a66
3dbfa7f0
3ced4d49
3e153d56
3e1ee6a0
be3de1db
bdaa5478
be11032b
3d8e2e9d
bda7293f
bcd2e713
3e15a8b5
be3278bd
3dcaaf36
3df1aa20
bb946179
bd757838
3e02fc43
3d735929
bdd3bb5e
3e219db8
be1bc1c7
3e36d1d4
3dbd0045
bd107d46
be3a76c4
bda8ba16
3daf0ece
bdb9d829
bd864879
3d40468a
bd6aea2e
3d89c9aa
3dbffb9b
3cf620c7
3dd923fb
3d0ab931
bdc0861b
be2aa379
bd84f09c
3dd01782
3d9c77bd
3dbbf68a
be32258b
be162910
3dc33501
bb78b2eb
3d548985
3e18b8e1
bde64e5f
3dd81cb1
be0732a5
3ddf9370
3d824ca5
be394faf
bd13ae63
be28ace8
3e2f7b91
3e00db36
be4395aa
be20e81c
be080842
be15965b
3e3317b8
3c1014be
bbc626dd
3e1fdb95
3e289b2e
be17d8df
3bbe1be9
3de0e6aa
be1d0d9f
3e321ff8
3e063a37
3d27f595
be30a257
bdca3405
bdcf3f81
3e0fc3e0
3a95e613
3cdfbfe9
be361965
bcd39598
3e348a46
bdf1a9cc
be1c6e4c
bcee47de
bd3fe6a4
be2ecbf1
3e286356
bd6a3d91
3c6bb434
bd160b19
3bd4081e
3de3ef22
3d8ee912
bd84ae11
bd83e1ca
bd5548fd
3d85922f
3d95156f
bdc2afd7
bdff3c58
be07d441
bb84f24c
3b94c4b5
3d9aee4b
bceb59d0
3daed62b
be225b39
bc2102cb
3e2e8c05
3d3e081c
bdb2fe56
bd51afbd
bdceb23b
bdc53332
bded5d5a
3d3ab5c9
bc7fb4e4
3e23781b
3cf92359
be2b11ee
bd4e3743
bdc2c165
bd0c4cb9
bd8145f3
bde400d8
3e4b46f2
bd94dbe4
3e3e6174
be15ff81
bdfeacc5
bd9ad138
3d979efa
be1c3225
be2ac2e5
3e3fd316
3e2bfaee
bc0f6c71
3df1bc23
be3ee06e
3dce0a45
bb8cded7
bd0cded3
bdcd16e7
3dbbeeb1
ba2f13c0
3d84a5f9
3dd34a68
bdb68174
be58fb8c
3cf1c89b
bded0d3f
3d3f6bef
3d795f34
bd2affd7
3d323e65
bd71ed1e
3db178db
bd8dd19d
3baffc15
3c8d89e2
bcd9c083
bc19c5fb
3e43e4b2
be291b53
be0b2aba
be3c9c44
3e2e6a2f
bd9167e5
3d6037fd
bcc437ae
bcdedb53
bc5deb81
bd24d1f1
bdb70497
be0eed67
bcc4ee3d
3e1c8f1d
3e0c29d6
3b126657
bddda513
3cb835e4
be42630c
3df4f152
bd216dd8
bd24ee2d
bd0a2843
bde10593
bcdd408b
bd5fa2f4
3d83d092
3e3c00df
3cfa0a36
be0409b4
3e35e267
bb103e6b
3d84902f
3da7700a
bddd8a4e
3e1cb3bc
3cf38d32
3e3b97fe
3e17e3e0
3e1c78a7
bcad28ef
be12f678
bda09980
3d3ad4d9
3e0fe6da
bdbae0cf
be01645c
be02e5fb
bd5f712d
be098052
be33e0e6
bbc54a00
3dc719dc
3e10e55d
bda9abba
3e06722f
3db524a9
bdb0fb99
bbb05642
3e2f0595
be279bc8
3d8ae5b5
bdd3d604
3e0deb52
bd6d0dc7
bd02fb08
3dd3ca85
3ddd1dfc
3e14b550
3cedc77f
bd8e9b29
3ce172f9
3d446cc8
bd2755ea
3d0d13d0
be102d1a
3d719ca7
bd637f05
bc222858
bdfbcc77
3d9d2672
be1ba9b3
bc3cabe3
bdc17c6c
3e0503d0
3d8c337f
3e0cbe9d
3e2c246f
3e1f92c5
bd6ead72
3a41daff
bc30da85
bc960c79
3d63c002
3deb0ac6
be0c5fa6
3e3af55f
bd769c76
bdd0f76e
3dcd4783
bde2dc39
3d71cecf
3e28ef4c
3dff80ff
bb8d2c63
3ca81660
3db766ba
bdee704f
3e38c9f0
3d8517c6
3e2dd65f
3d995abd
3e1705b0
3dd639f0
bb8e65de
bd8b0d93
3da9e807
3dadec0e
ba9c4966
3da76106
3912f83e
bd36072c
bc593d8e
be2404fc
bd6c0ed2
bd89bb5c
3d900210
be483faf
3defa44b
be2cdebf
be16102c
3da5a9f5
3bddac2c
3e094823
3dc03a40
be345b27
bd1a7c49
3df49ffa
3de4547d
bd33e8ea
3e19e60e
be10a3df
3d553c37
be2dbff3
3e08a8e4
bda36302
bca7983d
3e10f042
bdeecaaa
3e243f0a
3cb6f759
be1a4f4e
3c27ac5c
bd9af5ac
be1ad553
3cdd9894
3d7731a1
3de68454
3e2cfbe0
bd0d93da
bdd3a216
bd2c47e0
3da005dd
3c2958d9
bcaefcb4
bdec9fc8
be19305a
3e18c574
be32f274
3cab2230
3d8c95d1
3b0c01f8
bda296d8
3d5e6d87
bda333ad
3e14f760
3e235927
3e023f48
3e2adca6
3dfa32ea
be211bd6
be389a0b
bdbe39a2
3c9c29b2
3e0af4da
bd9ca182
3de120a3
bd819d5a
bbc7f71d
be27ceeb
bcb380cb
3cda2267
bd7e1027
3d97327a
3d049b8f
3db4f600
be3d5204
3ce2a4d7
3dc0c182
3cd58bfc
bdeaced0
be40bcf3
3d30bc01
3d957f9f
bd1f3bfd
bd4a6180
3d9fbc9e
be0c187e
bcb24584
3d66412e
bdca1569
3e252a0f
be0cd2c9
bc5eb01d
3cba4da3
3ded5274
3de55c97
3e021d3b
bdf2dab8
bda51cf6
3e02ec2e
bd884335
3dbc023c
bcdb8eef
bba08d55
be07e959
3dcf32a3
bcb6df1e
3d7286e2
3e356a46
3bd624c4
bd4978b3
3e2992b0
3d13e4a2
be0be26d
bdcbde92
3dfc6dfe
3e0b0071
3c5165c7
3d92e64f
bd5fda0e
3dab1175
3e120112
be4cd8b3
3e4bc8a2
be026a4b
3e06d864
bd9ebf3c
be357807
bd5acc95
be34cb5c
3e34ca5e
3c36b254
3d9fefc8
3e17875c
3e0ed496
3db3f8cc
3dbd45b4
bd6f7afa
3db06cf9
bd8ecbf5
bb5f494a
3ccf8cfa
3cf6ffe1
bd8bed3c
3b0e91a4
3e44bf84
bde48f6a
3de8ab43
3d364b2c
3d3a61eb
3d998752
3c1232d9
bd8aeaf6
3c097d6d
3e002bdd
bddb4651
3dc344e6
3e629f9a
bdb712c0
3ddfab57
3e1a36be
3de0a8d5
3d74b73c
bd14d823
3e0f45e1
3d719559
3e23400d
be140cd1
bd7025ee
3deacf68
3e378db1
be218204
3e1027a9
bcee9754
bd020ad2
3e296147
bc8b0285
be2934ec
3e399e9a
bde49f6d
bc125775
3d91643b
3dcfa9de
bd71b354
3c8ba6db
bd8ee490
be093c76
3e2090cd
bdd2f5e9
bbe650e6
3d7a44e5
bdbfb907
3e4ae83b
be0dc713
bdc19fb3
3df63e44
ba66c74b
3e0a35cd
3d00747f
bc275d97
3e1a0ac7
be5c07e8
3d78c5b5
3d1e6218
bce471f3
3d6eb546
3dfea09f
bda7d40b
be032d1e
3daebd83
3dd69881
3d5a0d67
be31fa65
bcdd9bb2
3e0929b3
3db61b7c
bd8fb2ec
3e11645e
bdb28fc1
3e2beb3c
3c8ce915
3d97ddcf
3dec2abc
3d54093d
3db70835
bdfee1b0
3db901b8
be108c63
be4d718a
bd8d6b3b
bd9a5aad
be035fe9
3d1c1112
3d4933b5
3e336b89
be17fac8
3e203436
be069a5b
3db7e0a5
be2f51c6
bcc36d99
bd8bda21
bd83509a
bdab1d5e
be05ea8b
3c23fe88
3df3ea78
be1822f9
3dccbbc5
bdf63719
3cdcf780
3e019ebc
3da93466
3c397276
3df93a97
bdf4e866
bdcb2cf6
bcf2c7a7
bdbf7442
3dd8fbe7
3ced5f77
be1b4846
3de172fd
3ccceda2
bda4750f
3e2b2cab
bdedd464
bdf20fb4
be31bac4
3e3a0866
be039f6a
3e08da16
3dc1f536
3cfc9cac
3d64f75b
be37bba8
3cd92998
bd1dab07
3c88b396
3e54dc72
bd711d0f
bdbbb4ad
bc269d6d
3d4e802a
3e1133dc
3d819a3d
bd42a941
3e17315c
bbb97817
3e08f88c
3b04f9fa
bceb5ee2
bdcf04f9
3e2391fe
3e207b6c
bde081eb
3d9d1819
3d4d4c90
3e15a5b4
3d5bdbe6
be13548c
bcc8d336
3d914796
3e102ef6
3ce2fdb8
bd75c5eb
be1844c2
3dbd9461
bd861ba4
be18e9ea
bc1d0ceb
bd1bb326
3d9481da
3d133260
3e309144
be32f328
bd58c51a
bda3e13d
bddcf235
bddb9c35
bdd31685
bdba99f0
bda958e8
bc231cc8
3d8d558d
be336da9
bdb52697
3e036cb2
bd4f5faa
3dd17bb0
3d63b569
3e2734b8
be198a89
3ca23271
3d1c43de
be0b7e01
3d0e606c
3d82c3f4
bdbd5552
be16608c
3e05c610
3dd85dae
3b9bb837
3d0956f7
3dcb43a2
3d1d51ed
3cd5a819
3c1fe559
bd5a0c81
be42a327
3e40d216
bb3167e6
3d9c885d
bdf3a260
bde0c0ec
3e043bc0
3da4d968
bd80cfba
bd5d31fd
3d36123f
3e33068e
be567454
bdcc8536
bdd29bc6
be0f59fa
3d4dbfce
bd2bfd48
3dc6ebe5
3e0882cd
3d414cbf
3d1ce31f
3e302d54
bd2d900d
baad2c41
3cb3e42b
be305f34
3d78080a
3dac8c2d
bdfc13ff
bd924d28
bcb2f08b
be156909
3d33e4e3
be122efd
3d19ae2a
bddb22f8
3d8b0d27
3e29de91
3dbee1e4
bdaf0393
bd37d1ac
bd5b7ec4
3e3b71d3
3a9da63c
bddc4bf5
3d80714e
bc551a3d
be1becc5
3e1f0b53
3e211798
bd89c9c3
be0d35a6
bdfd11c4
bdf7afd8
bdcd58aa
3defb8c7
bd55ce4a
bdb836ab
bd8533d8
3d73003e
be30e54a
bdffb3de
3daae6ae
3c2ec18d
bd947b99
bdcec232
3d3ab451
3e3b1be3
3e0ddb51
3c90a8fc
3dc83661
3dada9d2
3b423a34
3e092ba2
3da558e8
3cbe1977
be13d637
be0cdb2b
3d77c94b
3c950678
3d791808
bd4239ba
3d985d09
bd1c2093
3d379e8a
3d645bed
3e39eee2
bdda4a07
3e1d01b9
3d391119
3df62050
bd079964
3ced6d75
3d7a94cc
3df324bc
bc4ef148
be25bd6d
3dd15d90
3e1b19e6
3b0c5101
3e3b2e8f
3e028bae
be40ce89
bdbe786e
3d9b999c
bc0a56ca
3d514454
be131d5c
3cc59816
bd816edc
bd2b3b1e
be1d9df7
bd6de33b
3e0abdce
be2842f6
be1c1596
3e36a1f1
3d67af26
3d4218bc
bdb26d53
bbac5e9b
bde4b928
3e169b6f
bd9ff1da
3e151904
3e044193
bc612283
3bbc3197
3e436f95
be52a52d
3de66838
bda1af96
3aad27ed
3d4d964f
3d562638
bd8e808b
be290db5
be40d117
bc72e75c
be172a50
be11a9ef
bdd61f1e
3deff339
3e09fdc9
3e502560
bdade7fe
3ca39fc0
bdd1fa09
3e07f274
bddb0739
3d7bb406
bb4c2108
3e144541
bd4f9b93
bdc5c4da
3e01f36a
bdeeb667
3d921b51
bd9a2fe2
3d0a1528
3d2e63df
be0175b7
be2569bf
be282fbb
be056731
3df15663
bd85be5a
be2f7fab
3e249dbb
3db1db36
3c327fb5
3dd82170
bde85c34
3db2a402
3e1290f4
bc03031a
3d8f41d2
bd4838b2
3e5429bf
bd671657
3e4595e9
3de5c0fb
3d609025
3ca65864
3da6e790
3e28d211
be439591
3c776a91
3e11d516
bdb310f8
3e128f70
bdd8e3f0
bc97ac99
3e0eddd5
be1afe24
bddfad43
3d7a0584
3a32a177
3d16525e
be08633d
be0afc15
bd90adf0
be181fbc
3c23e8ea
3e172b9d
be1da551
3e12a3fd
3e029740
bd6472f8
3d1ceb63
3e24fe1e
3e4c698c
3d5367f7
3e292d83
3d7e7601
3c119341
bd1978e2
3e05631b
3d1e7b06
bdbf0cbd
3dbea6ff
be089b1e
3d9e1126
3d9cf8b7
bd94775a
bd363b0d
bd9e0a2a
bde3b106
3e090d37
3b1ac9df
3e0f458c
bd65d5a9
bd40fcc9
3d0daf32
bde9b0c7
be2860b9
3ccb703e
3dd9721c
3d716e04
bdba5cea
be041fb1
3d11bc01
be0c8896
3cee0dea
bd4654c8
bc0c29e2
3e20675c
3da3ca59
3e2ea861
bda62bd7
3e16edaa
bd9923aa
bddf64ae
396abb60
bc0ce541
bdc081ab
3dffac52
bd8f7508
bd091721
3cd40f1b
bdc1fdda
be35f117
bcdeaf15
3cf1338a
3d6b0ede
bd95c54e
be0299c0
3bb02d8c
3d4c0d4d
3d357309
bd5960b2
bd9e0137
3d1c26b4
bdfbb580
bddf3656
3dd517f6
bdf7dc45
bd01dc80
bdd3d487
bd888fc3
be1d45b7
3dc2cf7f
be24273e
3e01a0b3
3e0e5d44
3e249ba6
3b93c6a6
3d152655
3bf493da
bde0be1e
3dd3177d
3e1968a8
3e0f83bf
bdd4cfec
3dd86cd6
bc7f8d72
3d85ac87
bd69856f
ba3d80f0
bdf1dd93
be0ef90f
3e1c6722
3cf986ef
bdd3886e
bd76d7d0
3a3265af
bd7bb0d4
3e27c430
be262129
be261649
3d6dfa97
3e2ac878
bd416ef2
3d680c2d
bddc2855
3dd7d04e
3dff3cf1
3d1f864e
3d65007c
bd142f09
3da23278
3e313f27
3e0edad3
3e2a9b21
be1e8120
bc060470
3d06de07
3de35a7a
bc1b9465
3e39b24c
3d063dfa
be10b6dd
bde4fbed
bd8924c8
3df04309
3e263d8b
3dd95963
3d6e5f9b
3e103bb5
bd824974
bdae8d77
39b3874a
be2cd684
3db61f4a
3e1888ac
bde3888c
bd6449c0
be071747
bdb25bd2
3d8dceca
be1bd6cd
3d03dd71
3dd81171
be3101af
bcb0d7bd
3d2f9bdd
bd35585e
be235b75
be15f739
be073224
3ca2b4af
bc6bdc92
be0ec07f
3de40bc4
3e1b8a7a
bd8694c1
be010860
3e30018b
3c959434
bb0311a8
bd5d5f2b
be0902a5
be250551
bd9fb981
bcb2daf2
be03d732
3da71a9c
bd05c000
3cbbef5b
3e0433b0
bcba36ed
be1036f4
ba1a7f7e
3ddab3d7
3dca8b45
3e4b5d50
3ddcb954
bdc69548
bdc1837d
bd31a88c
3da6cb48
3cd15755
bd2d802e
3dba4a3b
3e264b68
3df45e4d
3db61b71
3cc74e82
3cfd1721
bdf3e5a6
bdb4ee14
3e0ba8a4
3e29f711
3cfe8913
be01e0f7
be2ea751
bda2764f
bc8beeb7
be09a1de
3d8fab1e
3d90fddb
3e3e75d2
bd4afdee
bc07c841
be29c93e
bd2adb8c
bdcba0be
3dea1848
bdbd641b
bdbc8820
bbc3fdb7
3d1534e9
bdd59f09
3ca56f0a
3d04e6a8
3e30c5eb
3db2d6ae
bd2b20ab
3dd2aef2
bd63c946
be1f965d
bc9613ca
3e060dbb
bdaaa0f4
bcb5a2ed
be0059d7
3e186735
3cc4eb83
bc15f2f6
3d22c81c
bbee36bb
bd4a3c07
bdba3542
3d820c5d
3e31d48f
bc99e783
3dbcef19
3cda385d
bce7310a
be3eb06c
3e150452
3d7b9579
3db55409
bda4b1e8
3d8c176c
3e376ee8
bda2dcc1
3e28a5d6
bd482c38
3d80c493
3df966f6
3d2fadb3
3cfc15f8
3be846d5
bd1e7787
be155d68
3e05db3d
be48e0a1
be406898
3e2015e6
bc8ce73e
bdf17119
3d89fad8
3de6b25e
be21248b
3c8df557
bc62a3cf
bccd3211
be0d9c7a
be17269c
bc558692
3dc4a0d4
bc551f66
3e09b8e5
3dfed533
3a8e270e
3d6df553
be1586ac
3dd9aadd
be2b81d4
3d52ac2c
3d1bed91
3cbc4964
be31f9dc
3cac6599
be047a0d
bd74f97e
bcfe3997
3d9aeff0
3d3c5ed9
3dddac36
3d35afd9
3e213efd
bcfdf7f8
3df48388
be299a24
bd938145
3dc11a4b
be1b8187
be0a051e
3e22a33a
3e234bce
bd1abeda
3e1ea54c
3e391889
bd32a230
3e224749
bdffc828
be1ae89b
3e2fb290
3df0b491
bdb6c616
be04badb
3c470d49
3ce06a39
bd9186a1
3d3a1735
be0935d4
3bd2b552
be31defb
be2282af
3e094a93
3e1b83c4
3dc7afb3
bcf96ecf
3e17a29d
3e026316
bc375eb3
3d3640af
bd6cd7d6
3d6200c0
bd9b02ae
bdc10500
bd14f55e
3e09c0b4
3db5bb48
3ded5c78
bdea33cf
3e38ce6e
3e28c714
bdaa9c5a
bdb2615a
bd7336a4
bd0b7800
3beb670e
3dcae14e
3c98df0c
be2cec4c
bddd0472
bcd275ad
3d85c90b
3e199825
bdd83990
bda7a58b
be379c44
bcc71a5a
bd30eb11
be1a84f5
3d0185c5
bde5e349
bdd4ac04
bda56d2f
3e08e303
bda2486e
bd437141
3e4d8710
bd6be71f
3e1e2954
3dd26130
3dd6bf5f
3cb497a4
3dc2d6be
3d886490
3dbcaab9
3d89d0c7
3e08736b
3dd7933f
3523a058
3e152e46
3d456fc1
bdd08def
be2bfa70
3e322d31
bdc9cbcc
bcc10137
3daafd06
bdd235dd
3daa7226
bdc5fc9b
bdaf4dde
3d8c4ec0
be267cbb
bd3e597c
bbc3e9eb
bd91145d
bdd68b8c
3d865f96
be265698
3d98570b
3e2783d0
be26fa47
bd073da0
3e13956b
3d42ec98
bdce83f0
bdc66762
bcb32bbf
3df22b10
3e3716c9
bdae4f5a
bba5595a
bd9dc78c
3c5a2077
bddd4c7b
3e028e5e
3e30ac8c
3e1f2cca
bcc9def7
bd643aae
bdd3a0b5
bde564ea
bdd0caab
3e3eed99
3d8bb207
3c278a1c
bd3755df
3de9dbf7
bd0b44c9
3e2aee4a
bddffd89
bdc5936d
3e1c2f3e
3e1cad61
bcdbc361
3c71f2d4
3e18db0b
3cacecb9
bd074afb
3dffd34d
bd821f94
bdc411a2
bc700ebc
3d25146e
3c4d9fa5
bda8d6e7
be1aae89
3daad9da
3d9dc964
bdf52e30
bd5f7466
bbc98234
bd86222b
be12882f
be067a74
3b3a9632
3df1d0b9
bdcc83d2
3d4e54e8
3b9a0579
3dce4e04
bcefbd63
be450016
3d90dcab
be16bce5
bd18a0f6
bce6e206
be270957
3e2822c0
3b83368a
3e201614
3e2412c4
bdc4ad1d
3e44575c
bc136667
3e464034
3e321ae5
bd7a4455
bd269336
bdc232ae
bdc61395
bdbd635c
be0c49ae
bbbce2b3
bd085704
3d84fd50
3cd790b4
bdbebd6e
be3ea5cc
3d3ba08b
3d80ef56
3c89cb47
bdacb4b8
bbedf770
be2c33c9
bdbd07b5
3d57bc7a
3e18eaf9
be02c722
bd50783b
3d9d50b5
bc4025fc
3dc1d197
bcfee3e2
be1ed6ff
bdc16a3a
bcbb7877
bcafb07d
be3d7965
39a85e1d
3dc97179
bd2175db
3daa3828
3cf48626
bc8e090b
bb90189a
3de14c86
3e35c286
3d3bcc49
be157b57
3e23a915
be3193fb
bc7060db
3de6c677
be4493bd
3a089de4
3deedfd1
bd66cd5c
be18f2ee
3e33b171
3e014fe3
3e0a56f9
3df803f4
bdf02e07
3cb1af6d
bccc48b3
bc4ce747
3d3d9204
bdb1257e
bd0fbee6
3e34f8db
3de89919
bd6a6387
3e2799f5
be1d474f
3bb2ffa5
3d8e5b69
3e35f9cd
3dbb174f
3c656046
3e3a52ff
3e034bd4
3e07fc1f
bca194cc
3d1ef49d
3d9f06e1
bdcb1ea2
3df96476
be4768e0
3ceffea2
3e0f0ad8
bdc90ac1
3d9b4803
bdfff6a2
3e0ba651
be5207e0
bd5b54d1
3e279655
bca53056
3d4d2dcc
3d1dc2c7
3e1dde2c
bdd0c1f0
bdc20b2d
bd0263fc
3ddab957
3e3e210d
3c2f3495
bd80bef3
bce01db6
3c81b8eb
bd3877d0
3e2068f5
3a5b3dc7
3e33bb4a
bd20ead6
bd83454a
3e0b4b4e
bcd3573a
3e0b95b4
be50e408
be199ac9
3c8a3c14
3dcd397d
3c8d9c4d
3dd2dce2
bc80ec73
be1cc39d
bc34a3b2
be0070d5
3e318588
be1ea82d
bdd92cd3
bdfabace
3c1b2e53
bd250297
bd04fa32
be0b7141
bd1bd1c1
be23d540
3e0e99d2
3c6600b1
be0984c3
3e1d588a
be1faced
bd0041db
3da2c321
bd1c03db
bdda1333
3c83d552
bdb4bcaf
3e1b8c05
bd5b5dcb
bdc6f0b1
be258f39
bdb4927b
bdb83f8a
be48becd
bd33e7cd
bdcb23ed
3db283f3
be06736f
bd2cac1f
3db7769d
3e149ebb
3d29fe08
bd1e07e3
bc918e34
bb92cca8
3e07b427
be192fe0
bdc2b657
bd86f0c2
3d11f325
bd10020b
3d5a94ca
3d60bb37
3dc24ff8
3e235e61
be3756ab
3e0fe218
bdbebf4c
bd0232d0
bd21aede
3d96308a
3dbcb4c0
be1afc85
be26f918
bd9af961
bde1ed4c
3da78f70
be3e7471
3d714362
be04caad
be091e74
3dbce7b2
bc94c162
bc43b442
be4b3b04
be0cb665
3e0ad2f2
3cbb1686
3e254b5f
be128347
3e3fd39e
3c36b6f1
3cc493af
be305cc2
3e404e12
bd9ccd70
bdc29874
bd504459
3da4e66b
3d915eea
3d5c2a0a
3e1534b9
bc19aea6
3e0417c2
bde7e78e
3e018eeb
bdba54c1
3e0fe363
bca24721
3d316955
be4348a7
3e28c9bd
3e09f67c
bd2c433d
bd172d9e
3d17bc96
3e407ac5
3df461e0
3de98e3b
3e3f8cb1
be2d8395
bdfed597
3e059d9d
3d2a85b6
3ba9cbeb
bdead6d0
bd08d01e
3e147ba9
3df026ed
3b861cf0
3e19a24e
bda279e0
be0cb432
3dc89393
bd514926
be051f1a
3c0d70c9
3d826221
3d66a6a2
bcdafcca
bcf06232
be101294
3e412f01
bdce01b7
3e4059d4
bd03636d
3e34638b
be2b4d8b
be4d6120
3dd8f243
be3c20ce
3d0fad7c
3b15144d
bc9a3626
bdc588ef
bcc62478
3c997691
be139e3c
3d2a0c63
be2afe8c
bd00fff1
bd218867
3d430478
be1a02ed
3dc60ef9
bbf3ad81
3e415291
bdfe90b8
bdaad1ff
bb551b29
bd54d4e5
bdb7d3fc
bd8654a1
3c965fda
bd60ff89
3df01297
3e19853f
bd78cf56
3d9e1151
bd9cc344
bd189c55
3d81ad17
bd9f6ad9
3c8a0583
3d85a4be
be47623b
bd080123
3d4ac8c6
bd4d1cc7
3d50c6e3
3bbe532b
be30c865
3dfc921b
3e32daa3
3d5d4c83
bca5e695
3dc227ed
3e1c9a77
3db3b4e3
bd82f436
3dee0f34
be32cb61
3e29ba58
3d92ada8
be45ccb2
bd85781d
3def228c
bdbd3ba5
bcf24c17
bc9ed270
3e065ab8
3d1c32a5
3ca1a549
bde40335
3e2de6db
bdb943f4
bd7af608
bdbf6fa3
3dde220a
bd9807cc
bdb006ed
3dfdf292
bd65e69a
3d452427
bdd2fc75
3d9e22ff
3d014e3a
3cb69931
bc5ccdf3
bdadf3a8
3dfbed40
3d27d77b
bd7c9808
bdce98dc
3d3c605a
3b0fa51c
bd6c18fd
bd5a2496
3e4004d7
be0a2056
3d6203c5
3db49212
3e094f96
bded0895
bdcd20b2
bdc96aa9
3c021d84
3dd1100b
bd0bda19
be0bec69
bc72ced5
3dc7718a
bc8f0389
3e2904f6
3dd548b2
3dd5dc00
be1527ff
bd8b5867
3aac3b96
3dba32e3
bda9435c
bdbd298f
bc213108
be18ad2c
bddbd0ca
3e3487b3
be02ab43
3d2cefe8
3d29fbdb
3dceb11b
be02906d
3e1782f3
3df0b7b6
3dd4f026
3e0ce43b
3e063a12
3e32a87c
bd9f5bd9
3e1e8253
be1c57f3
3d4fe803
bda1b736
bdb08b1f
3d26deb0
3d35261b
3e1184dc
3de4c97a
3ad9f489
bd20f461
3d6b06d7
3de0e3e8
3e3d645e
3b98edb4
bd703818
3e015e2d
bde0b169
bd81b6ff
bd9862cb
bddcc278
bd252114
3dcf3de8
3ddc7f6f
bcc4979e
be294376
3ce92981
bd68f018
be203a44
be148fe2
3c9ef188
3bcac157
be1af0da
bd5e36b3
bdf687ac
3d1dc82a
bcfbf77c
3c8233bd
3b08e893
3dbfc4ad
bd0452be
bd34bd7f
be176c47
be11cbc0
bdc6666d
3d8bccea
3e026600
bd962d3f
3d4918dd
3c79e899
3d0254a0
bdb123ad
be1600d3
3e0a00ba
3d55f289
3dc6b994
3e07f95a
bd7aa1de
bb172ddd
bdab4a7a
3dfcd062
3e1a8364
be011704
bdb2b601
bd5a100b
bd87a1c0
3e328489
3cf3debe
3dacfdca
3d9a8b85
bd5551dd
bd5df926
bcd35712
3bea7370
be14c39d
be234772
bdd76fd0
3d238694
bda3dbd6
be192695
bdb45a4e
3dc4a0b7
bd733847
bca2f6d8
be31f5a2
bd93c9c2
3dfcff2f
ba5a0f1e
bd885e9f
3e16c56a
3d739ef5
3de517c5
3cdebf8e
bddac93d
3d96b1ad
bde7e873
3cc2bab3
be3aa133
be2f0f78
bdd981a0
3e07c7a2
be2d2854
bc9734fd
3e343c22
3dbf9d66
3e050684
3deb1b92
3b7c9627
3dea8383
3da1b43b
3dadd40e
bd8710a7
bd248528
3dfb5bf5
3d89a9c8
bbf64c9f
3e02e062
3cfaf24b
3d01d228
3def49d2
3dd50c4b
bd2105e8
3d29cbce
3dc08b39
be0f4dbd
bd99a9cb
3c25173d
3c74e2e1
3e0e4446
bcfe1c6d
bc99d0d5
bdecddba
bc0fab41
be05b0b6
bdf592bb
3dfafcd4
be321ef3
3b4d8a20
bdc5a649
bd021805
be38bab4
bd5158cc
bdde9116
bd427a12
bd984317
be14e8fd
3db2e7d1
3dedc1eb
bd52aee0
bb1cf286
3d9decad
3e20c06e
3d6ebf98
be334619
be178a20
bcb094e2
3e15e52e
3cee856f
3e25bde0
bdb750fe
3e0c5381
be09b7a2
be215a0c
3e24f863
be15aa24
be0f9f6f
3e2b9d6d
bdeb7256
3d995a1a
bd99fd30
3e32b1b5
bdb0edaf
3d012ba3
be29895e
bc35927e
bd8b147d
3e02df64
3d2953d9
bde175e0
3dbc7916
bd1d00cb
3e07f305
be12080c
3c9df7d1
bdf0b779
bd8848e2
3e25647a
bdf5bbb5
3d016568
3dd66e36
bd377819
3e1eaf69
3e2fce84
3c062890
3e1ed676
be012d09
3df041c7
3d54d9ef
3dd83101
3dcc2c07
be0cbb94
bd3025d6
3d968b37
bde2b788
3d036db6
bd20f0b3
3d940d89
bdd8ac3a
3d2c5fbd
3e03de52
be08e189
bdc1dfca
be1c7a0f
3e0e1a02
be3206b9
3cdf45e8
be13ba80
3da07a53
3d5f644b
3cb7699d
be0f3011
3d1638ea
3e340945
3d96c31b
3e4f3acf
3e0b352f
bdc94120
3cf31fdf
bcc54ae4
3d85573e
3d1d448e
3d3c7eb4
3da1fbd6
3d8b5d2d
bdeedff7
3c72841a
3cd27112
3dc7937e
3cc189f5
bdf5a02d
be1701f5
3d3ad8a7
3d99fea0
3d7fe3b4
3c7f7385
bdbb9ebc
be079a9f
be3a3716
bdbcd512
bd762566
bdd57b09
bdb349a6
3d0624f0
bdf28a5d
3e4437c8
3e0a49fc
3e283430
be38cc95
bac0c42b
3e016d1a
bd06f0f4
bdacb036
bc3e99f4
be167935
3cd25455
bdf69ca8
be27a865
3d6817b5
bd36c000
3dcec660
3dbb9584
3d4e2f58
bd918626
bde5e1c8
bd92e922
3d5e5232
3ce25120
be1ff4c0
bd5ce009
3e06e19c
be2a2cab
3e1c9c92
3daeb039
3db5b1d1
be1ab26a
be025eaf
be0b752f
bc27d584
bde472c9
3dba1fae
3dd82412
be3a3176
bdfb542a
be385364
3e19e0e4
3e0a2858
3e026bed
3d9ad484
3e101fa3
3d747066
bd3c5c1f
bda3d1b4
bd819250
3cc3a14b
bdc423ec
bdbe6726
be0e03fd
be288205
3dffa5ec
bddfa96b
3e0e8ec9
be2423b4
3dc37470
bdf01571
be0a0e1c
bcf3912f
3dacc2ba
be06ad12
3e0430d0
3e346adc
bd8a5da4
3d270891
bd6c6998
3da227b8
be3dfbdf
bdaf57dd
bdd32c7d
bca0ffde
3e1851c6
3cc2d7e1
bdf6ebd3
3da18bb2
bdb6cd4b
3daceb41
3d3f9b05
3de62538
3cdc18db
3d507f5e
bdc6b0b6
3e11e61e
bdad7261
3d855d60
bdfd1387
3d8be76f
bd0ca374
3dfe1b9d
bd0cdfb7
3e10f84e
3d73ab2f
bdd42968
3cedd186
3df15040
3dbe7ee2
bdd39671
3e21445f
bc9515d9
be5fc165
bdcb53dc
3e4eb11d
bd018ae3
3e0c0b52
bbad10e3
3dc2f3e9
3d4c6b6f
bd3fc40a
bd80a193
3caaa369
3e0c7c2a
be1e3b69
bd825f4e
be49d273
3b9ccc33
be3e1128
be0c91ee
3d946b2e
be1423f5
3e0729f6
3e143480
3d8c41b5
be04134c
3d92efb1
be1487b3
bdaa0c8a
3ddae155
3ca7c6c1
bda605f6
bd05ebe7
be280a66
bd91ef49
bdba513a
bc73a88f
bd40d6ec
3d0d815f
3c5ff66b
3de4273c
3de608ed
bd069b49
be1dbcb7
be3c0bf8
be13974a
3c021224
3e05ffaa
bcc62b0f
3e32b7c4
be08c07c
bb8dc047
3d1516f9
be2d9558
bc4e9621
bd0e4725
3db40112
bb05ab5c
bdc45ea7
be060162
3baecd0b
be198ca7
bc22b8dc
3e2bfcef
3dc136b0
be0abd5f
be20b8b0
bda3b418
be2d47fe
3bdc6db3
bde941be
be15f818
3c4943f5
bd13f2cb
3dca8dfc
be2fbb61
3e30b3bc
bcd2a8c8
3dd420c9
bdff9f38
3d520ec0
bd674dbe
3d197cb7
bd2e0bea
bc9e3ef4
3d55d5f0
be38c31b
bd9d2144
bd747f1f
3d290fb7
3e475d72
bdf5b3d6
bd9dcaae
bd897704
3da5613c
3da7df49
be1e6ec7
bd488e3e
3de6436c
bd1608b1
bdd9ad9c
3e244f8c
3cfa5577
bdd0fe91
3e13f7ae
3cd895cb
3e435e1f
bd011cff
be1c23c9
bded302c
3dfd9277
bdf89099
3e3328ca
bd356277
be0b5beb
3e250b52
3d7e3d37
3dabfa14
bd23e929
3d7d1c5f
be0cd4fb
be297bdf
3d7fb66c
be1d5048
3d4a9c5a
bd69918f
be463fec
3d9c7e06
bd90690b
3da220e1
3e2006d8
3d41cca9
bda0b6e3
3e424324
3c8c8958
bd76c87b
bdcc85ea
bd6bfa12
3cfc1ddd
bd7ea95e
3d9d9955
bc995b31
3d036bd9
be28a43f
be229bbd
be072e93
bdb7be27
3d9d2c59
3da07120
bdbde747
3ce9f55c
bd7963d0
3e0dbe1d
bd6fa7ec
bdc9b2f8
3d0205c8
bd286668
bd372bdf
3d5c7655
bd5baec8
be169b2d
bdc09d6d
bbf4bb13
3e47e239
be260a54
3df6e72d
bd0bef74
bd84d676
bcf6b375
3d1b4ee0
be0a4e44
3dfef63a
3d81be6b
3e4b70fb
3c7b3477
3d983a76
3c621e54
bdd512b7
3d158baa
bd482ea4
3d302ba7
be2ef288
bc43394f
bd2e59bf
3e0c192f
bc4bb4ef
3e225181
bb809447
be0915ca
bdd33c83
3cc38c44
be14b4a2
be1a6f5d
bd436137
bd2848fb
3e292ecb
bd7a9099
3d1b72fd
3e0bce39
bddf9d33
3d74f512
3e3f43dd
3dddd096
3dbd6402
be0682bf
bcbe399b
3d73a228
3e01d95e
3d1efa61
be2a6124
3cb44e6a
3d8f1719
3d268c10
bc80b49e
bc9a20c5
3c6bb872
3c6749ba
bd8355c9
bdec2043
be03d58f
3e4949a3
bdd288c0
3d02ab36
bd99f905
3d61b685
bc08faa1
be14eb93
3cc13d9a
3d18ad5b
3e13517a
3dabe5ac
3d4e5636
bc8afcc0
3cbdd358
3cb01fc8
3e537478
3df894e0
3e4cfcf3
3d75eff3
be105fb7
bd090825
bda2e878
3d149d25
3e2864b8
3d9ff667
3e34cd3a
be017641
be12c5cc
3c319424
3c83df08
bcccc07b
bdbcf256
3c028777
be218ca3
3cf53138
bdd1a81a
3e061d5b
3c708477
3b871a1f
be0f6b6e
3dfd9323
3d306f01
3d1e980e
3e3adf5a
be26f1e2
bd3f4f86
be24ef54
bd90a3a9
3e2358c9
3d9fe8d2
3d470de5
bd86d341
be220f46
3c9fc769
bd75fa5e
3d34c23e
bd3a55a4
3df67985
bc9042e3
be393543
3da3bf9c
bddec07c
3e0efc77
3d5c2099
3b8333a2
3e16a2d3
bdba5af8
bc6ef55d
3ba28af7
bb96b371
3e087f25
3d5c235f
3d831e0d
3c8735c8
3e073005
bae76b55
bd8a0afd
3d28aafe
bda20a40
3d912a5d
3d115f3f
bcee1850
bd9b5927
3e1eb5be
bd73ad13
3d700946
bd99bfd6
3e270655
be1ea65b
3db3ed30
bd942ffb
3da625ab
3e190441
3ddb70a4
bda2f95b
be2a1125
bd7ff2a9
3d7901e3
3da5b316
ba1925de
bd231953
3e0738cc
3e06c64e
bde5fe12
3e1c5e43
3d87970b
3ddd62db
bd023380
bd843b09
bdb283ad
bd31d00c
3c499b46
3ddc8f36
be023d22
bd3fc65b
3d2e3d40
bde994b7
be24a43d
be15658d
3dc26c0a
be278a55
3c1d1fd5
bde96f69
3e1c75c8
3dec6316
3dfbc479
3e3710d2
be319eca
bde881e1
3e218ea3
be35816f
be1b8cf7
3d20fd44
3bf835ec
3d178ed3
3e19a612
3d8d06b6
3dc2a789
3db6594b
bcbf03d2
be17ea15
bdc53e02
bdb42335
be264644
be301330
3e361b41
3d9b998d
be332e74
be061f1e
3d004d78
bd8436b3
3e25045a
3d049f19
bdeb4a9b
38d2cf00
3ddd114c
bd230ade
3cfab434
3e2fd86f
3d5f5663
3cc3d62c
3e1ce8c2
be14db1a
3d1bc936
bda43d95
be3a387e
3da9bbf9
bcb4e8d1
3dc0f7de
be0b996a
bc62a952
be1a2cf0
bc2ac0f9
be2d883e
3cfb0e27
bd8cb86a
be2104ca
3e0f3e8f
bd2c6710
bd43825c
be2eb8a6
bdd60a86
bd0de83c
be0600db
bd8cbbf8
bda92026
3e0b64b9
3dcbf9e4
3e187c61
bc188c55
3e245100
be152efb
3ded345a
3e12cbdd
3debdfd1
bd588581
3dd3d681
3e0aac88
bc8218bf
bdcb23bd
be2b66f7
3d942a07
bba0bc07
3de93d80
3d8e3577
be35e56e
bd760ca7
be2bb55d
bd673cd2
3dc3fb3a
3cd3fe1b
3d32c048
bdc96df4
bdf3c376
3e40a8d2
bd3d1a98
bd9ee3d5
3d80f587
bdd36b52
3de7659d
3cd36e32
bdaa11c7
bc78b232
3d869e46
3e34d765
bdd67915
bd246e22
3d401e69
bd826ea3
3d8dedff
be1c415f
bc53c0a8
3bdf0ab9
be0f1af2
bd85ea12
3dc99514
3e33e1d0
bb0d60af
3e2e6ed6
bbf08833
bda64ec5
3dd66360
bda9244d
3e205795
bd5e37c3
be314ede
3e1491ce
be20da5b
3d6e4e47
3e61d01f
be287f15
be1df7e4
3d9fa7a4
bd7fc18c
3a01a792
bd2fcef7
3dabfd64
3e2282d4
3d86dfa7
3aa1f1b4
bda88589
38f3ff38
3b8f6698
3b3de719
3d78d947
3e0ed2c9
3d4fd5d8
bd016f57
3cec16c8
3d9084e2
bcd4a83b
3e0402e3
3e04dace
bd682ee7
be573ca8
bdd6c8d5
3e423ef9
bda8c1f6
3d06ad40
bd342273
bdb2be55
3e1b1835
bc40a2d7
3d22ddd9
bc655632
bd305149
3caccd0f
bd73dcf8
bd1c72d8
3e253023
be252035
3de107f4
be329875
bdb2b9ed
be5cc345
bda0fa8a
3ddee397
3d1f6217
3de4e083
bc58f591
bd8f576e
3c3e6e50
3e176854
bce2ebc5
bdaa1aba
bdd32bad
3da42d4e
be41383b
bdd866ef
3d27f68f
bc9bd2d1
bcc2c80b
bda5cf51
3e367ba5
bda6bfd5
3d6835be
3d28e343
bdf27ff0
3dbda9f2
3e19f6fd
be0698c3
bdb25304
bc5924e7
bd3b26dd
bda3483d
3d85efa5
3e0e69cc
3d846848
be3364f8
3e220c23
bd87ee6e
be269efc
3d04f021
bdf78367
3de4be71
bd659a55
bdfdc0e2
bcf34ed6
bc483585
bd8d0eaf
bd481584
be39653a
bd855099
3d0d021f
be167b5e
be0db35f
be00db6f
bdbad3dc
bd11a9f7
be29f37e
3e10d5aa
bdcd9c37
bd307b14
bd5a9d8d
ba1cc9f9
bdfafeb8
3e092a73
3c66a872
bd55803e
bca28fbf
bda9ea2a
3e17c7e7
3e38874b
bd844b69
3de1aea4
3d9fbb7a
3d9dd835
3c35e0a6
be03a5ae
bd8f8bfc
bce30eaf
bd3296ba
bdc6e56d
bde34c45
3d616d31
bdd45a2b
3e1f1c05
bd9087dc
bdc45988
3e250cce
bdd3ba29
be0d4d1c
bdac0171
bded7a25
bdb8daf2
bd94c561
be1a919c
bdbc4a0a
3e2f2bed
bde978eb
3df120ea
3e0a370b
3e277a79
3d9425cd
be2b16fc
3d8c2a20
3d175923
be1a7c6e
bd54d5db
bde7c75c
bdab2dfc
3aa2e670
3d937bef
bdafb3a2
3b15f198
bd891398
be1f8aaa
bd7f50fb
bdec1004
bbe23dad
bdda6ce3
bd4b0881
bcb60aa1
be30aa6c
3de3b840
3c1865bb
be268876
3e140b70
3e1f97c6
bddcaf8a
3dda1d7e
3d221a97
bdaf46f1
bdca8b49
3e2dc4c7
3d298d99
3e1c46c5
3db1e859
3dbd8b36
be12a21e
3df6a873
3e136a8a
3cf9fc00
3e316e76
be17a02e
bcd16624
be22cc16
be1fea0a
3e0876b7
bd538fa7
bda00709
bdb69060
bd924558
3d56ad03
bd8a1a96
3e066b0c
be3a0d66
3ced8950
bbdb1910
bc889b46
3e29f600
3da2d964
bdbb8bd8
bdce1b36
3dc2e699
be176124
3d15e986
bd0c2586
3d896b27
be1f5d1d
bdbe4b70
3e17d0f2
3dae7575
be38a300
bbc4ee72
bcbe15a8
bc04a32a
be152ed4
bd42218f
bdb9d316
bd51d1e9
3e0ec253
3dd5fa8d
3c64fae1
bde05ac4
bc438afe
bd90d121
bcff0a28
b9f99295
bd79fc66
be18e0e9
3e08490e
3d4a1791
be1c1d90
3cda01a5
bdab81c3
bd92478b
be13c640
be167304
be28f31c
bde1bc73
be0d6c53
3e21989e
3d7a9e82
bcfb0a96
3e141f29
3dcfbf2d
bdcb0a88
bdfaff21
be3c6664
3e02fa46
bc402b94
3e04ff48
bdf0aef2
3dc94f23
be120f40
bc557654
3de7345d
3cf8969f
3b82d0d4
be2db6f9
be3b15ba
bd1b011b
3b9bdf7e
be3997c3
3e24f743
bcfb3351
bd0bfd5d
bd3ea353
bc194d1c
3d84c99b
3dd8ed0d
3c578f94
3e175766
be378a73
3e30d112
3e298b39
3d93ad00
bd9d6d94
3e018b43
3d828aef
3d888ace
bdf0c054
bc82935d
3dab443f
be4a37a4
3dd4ed04
3e0a6762
bdc2386c
bd9ac1e8
3de2ee72
bd9a510e
bdbe0cf7
be25b865
3d061d3f
bdd98358
bd90f89a
3d4baf8a
3d81414a
bd94efae
be39959a
bdff83f5
3d9108ac
3cda6cbc
3d9033bb
3d1cd0b6
3e478524
be41d5c5
3e07b15c
bd3b817f
be11a6ff
3ccbdcb4
be421705
bd8cc7b9
bdf6d62e
3ced18e5
3ce69aac
bd6ec741
3d8e3da5
bd9d48af
3e2076c5
bdbb0839
3c0fb115
3dc6a34a
bd925d50
be37d9ea
be230308
3d66dad2
3c8907ed
3cb21258
3cca5c49
3ce51cdd
bbc51f7e
3dbc60a9
be046d0d
3ded1008
3e378a16
3c2bfa2d
bc79231f
bd437d7c
3ca07176
3e31405b
be08fb2b
bd34823b
be112173
3e08446c
bd8c8396
bd1d4152
3dc06a4d
be0e5b94
3df16fe9
3db2e649
be1c452a
3da11101
3e4f7592
be592ab2
bd241532
3e1592da
be44d3de
be036d7b
3db9b7b6
be006976
3dca2b91
be3ed179
3e28b487
3e0a987a
3bca39e5
3df0b068
bd1b7cbb
be2e084b
bcd8f488
3e2512d5
3e3a338d
bce733aa
3de368cb
3e20a4ec
bd188c05
3e05de0c
be05a330
3e326335
bd753949
3dabf77a
3dfbcdd0
be69a828
3cd3c136
bdcb3b88
bd2ef434
3dc53e1a
bc80152d
3df8f342
bd192bcc
bc04d14c
be21af3d
3df3e0c9
3df04819
3dfeafd2
be09b04b
3dbc22a2
3d311c20
3ca350c6
3cc76697
3b46bf98
3dfd8837
bd21030b
bdc20cb6
bd921a46
bdaaee63
3e1dfcd0
bda28926
be33f1f9
bd824e92
3e2906f3
3e4cc39a
bd9ecf87
3e3d7ec2
3de7bd91
3e42fd5f
bdeeec64
3bb52a45
bdf80d53
3dd4fcc6
3d3220d2
bde2bb5e
3d8bc669
bd96fe42
bd2e956a
bdbcfbad
3d9f22d1
3db13a37
bd7592fa
bde579a9
be30467f
3dd5bfaa
3e0af34a
3d3f983d
3e57d807
3d6110b0
bdd97ce2
bd9a3304
bd5d1629
3dc27586
3dba139f
3d9b11ad
3dafe715
3c3bfef0
3d51a1a3
bdad8058
3dc9fb95
bdb8ff41
3dca792f
be054149
3c15e6a3
bde1d2b2
bd806528
3c441b82
bd3dc9f9
bcc27589
3e0cdd39
3d6f7835
bc290055
3dd8c3fb
be44774b
bdcccb20
be2402ed
bda90423
be266c66
3d124616
be0a6404
bdab5c64
3c66994a
3de945d9
bd0eb3c3
3d72b8e4
3e070c9d
3e46ebd0
bd875a78
3e380964
be269e6d
3d8e91e2
bd14cb02
bdeb3bef
be104174
3e359aed
3de245ce
3d6c20d0
bdc477b1
bdda492d
bd2d5eda
bd30a2ca
3e04cded
3e038415
3dd88f6d
bd1b0b73
3daa120d
3e230add
3d0253cb
3e2dd74b
3dd0a5f4
bdeebc31
bde3b5c1
be039797
bcf2357c
be02914d
3dcfa0cd
3c573945
3c877275
3c8a5c11
baf78c50
3d9ff50d
3de095c2
bd7443af
3d859d4e
3e203cdb
bd9a5243
bdc8303a
3d6a1ade
be2815e6
be0bc027
3cd1c6a8
3de0e765
3a65b4d1
3de926aa
3e057f64
bd71e258
3d07fe0a
be2a4ab6
bd6b34b1
3e21473e
ba56527a
3e086027
be3fe645
3e192de2
3d801145
3dd69ae3
bc3a0441
3d5b6b3d
3b952131
be02abdc
3d7ab31d
3c4fc3d7
3dff72ca
bbaf87a8
bcf78197
3c8da9ce
bd552dc4
be097364
3e11cd7f
bd98d280
bdfb8ed1
3cda0236
3d898b3a
3ddb226a
3e0d198b
bb9b6e28
bdc1d15b
3a3edf32
bd0334f4
be3a7dd4
bda150cb
bdcb7e06
3c3ca87a
bdda6bc0
bd5b5780
3c259bd4
be252bee
bddc23c3
3d23841e
bb58b041
bd89da4b
bd91a172
bdffa4e1
bc37f97a
3e22af16
bd9a10bc
3e2ea308
3e318e30
3df64046
3d24b686
3e26f57b
3d37bcdc
bd19ddba
3d2910bc
3d228f21
3dc14157
3ce5a42f
3dbfd097
3e18e983
bc59bdd0
3de1d97d
bc1d789b
bdec48e4
bdd0ff2f
bd350f5d
3d124c99
bd679d34
3d95893e
bddc06f6
3d01c19f
3dee7754
be1349bd
bd0580f9
3d4c7118
3db4f7c5
3dedf85b
3d70877f
be05c913
3c6311d1
3d1357a1
3d906620
3dc705af
bd17473a
bdb4650b
be347cf1
bd79f7d1
3e369e56
3da00590
3d8746d6
bddc8e2a
3daaeb36
3da5af69
3df87bc6
be22375b
bd22cf0c
3e02675e
3db12edd
3dc1dfd2
3d05fd31
3c815e84
3d344db3
bdef4043
3e0ab2c4
bd195595
bd972602
bdb49b9c
3ddd03ab
bb80a0a7
3de3d3e7
bbf99590
bdf511e3
bb0b3d88
3df0680a
3e204d0e
3d35aba9
3d3f9e34
be20e267
3cd08f1a
3b78ee08
3d910b63
3d5fed1a
3ce256a9
3d700625
bd08755a
bdfd8644
3d12320f
3dd35f26
be1bff4f
3d3a342b
bdb029e9
3da52f10
bd9c5069
bd575112
bdc08a9b
3e09e53f
3e374702
be11d777
3d997d01
bdd93c84
be38a948
be2f2849
3c408133
3d3637aa
3cbef513
3dd8d62c
be0247e9
3e16efc8
3ba1d762
3e1510ed
be2db59d
3cfa98b3
bd335b7e
bcca827f
bc9dbbc6
be1fb798
bdda87da
bd68f6ce
3cdafd1b
3d30eb56
bd5e9f78
3c672fca
be0fe49d
3b74457c
3c385921
3dbc8abb
3dcf9dc4
3e1f414d
3dfb0148
bd962755
bd15b642
bde43d97
bcc1210d
3def4a7b
bce2d2a4
bd99e095
bdba3727
bd414b00
bdfe7b77
3d3a6d4b
3e27c896
be0278df
be297495
bd7987b1
bd173d22
bd8d05e2
3e36eba5
3ceb1c6f
3dde55e9
bd85f863
3dade2e7
3b1e3ef5
be3115ff
bd5a29c7
bd93c91d
3b9a9c45
3d52a1f2
be101f78
be23fb1e
bdeb539d
bc63edcf
bd84553f
3e364a4b
3df3b704
bc0c5879
3dd8afb4
bd1b4da4
3b76acaa
3d5009de
3e32e728
3e24bb4b
bd30512a
be05981f
3da0c774
3d3d77c5
3de8ae3b
be2eb828
be2145a2
3ddd5446
be2b52b7
3b0b44d8
bdab8ece
bdfce3f1
be2f33f4
3dcca979
3b45a7dc
bd664cdd
3ce137c2
3d8303a9
3d167122
3cc12037
bdc8b112
bd67ee37
3e0a70aa
3d2e96c6
bdb99cfa
3e0b2d3d
3daee133
3d5461e9
3e06f4b5
be2ad403
3ddb9d96
bd9b6787
3d45c4c1
be464931
bda8e44e
3c99d5e8
bd8bb40e
3e0e0820
bc512708
bcf0acf3
be043b51
bddcd48e
bdf0ddb2
bdfaddd1
bd83d552
be064575
3e475b0a
3d2d31a3
3dc725e6
be2f4962
3e2a635e
3d868673
3d939c03
3e0fcc00
3c591682
3d0ac547
3df0f59f
3dc229d6
3e03f7de
bc69ef4f
be03a450
bdcff691
3dac4d4c
3de7db2a
3e24e62e
bd51062c
bdce5cf9
be3dedef
3e09928f
3aa99b66
3e1ebdd1
bd967dc0
3d6eab03
3db91ac0
3d8dc5a1
3e0a34bb
bdea8fb7
3dd80441
bdb56bfe
3da7f3a8
bdbc13f6
3e03f822
3dcbc754
bdb83985
3cb983bc
3def592a
bb1a6e2d
be07412c
be50c6d8
bdf599f1
3da91ef7
3d4741b3
3d5904dc
3dc3e731
bd21809d
bd5d993d
3e0b0b2c
3d1de851
bd85cb9d
3e0cafe2
3c9b262b
3d272219
3e06b1a0
3d7aff8b
be31eb3e
bdda0ffb
be016496
3e18286e
be0b567a
be2172c7
bde98946
3dddc2e6
3e073c92
3d90d406
bd2630a0
3cd4ebe9
bcba7d92
3da54d9c
be11f918
bddcf139
3dd5c54d
be2bbcb7
3e0494cd
bdaf2332
3dafdf9c
bd3f77ef
3dfeb0a1
bd4c16ac
3d49cdac
3c5def97
bdb56508
bb7178e2
bde7b3fa
bdd555a4
be08d62b
3de7648a
bdf9c414
bdfb6a16
3ca5d98e
ba6fa306
bd1653b6
bdbb9d11
be125ac6
bceca91f
3d407985
3cdb52c1
3d83933d
3d2804d7
bd9ca81f
bd76ce0f
3e38e857
bd78eee0
3e23cd2a
3e05e0bf
3dce1eaf
bc2348a7
3d203e18
3e28546d
3d332085
bdb66a03
bd23e8c2
3c5b168d
bdd8a63a
be0e1deb
bd83e8f6
3dddf935
bdceb437
3d7cc21f
be2409b9
3cd7b41c
bde0f9c1
3cd0916a
bc863cac
bc0934f8
3dedc0d1
bdc36213
bd7a418a
3ca0ffce
bd28cbd7
3dc713db
3de770ad
3e28934c
3d97b962
bd6ad1bb
3da078cc
bcfab024
bc0f5220
bdb41991
bd885421
bd6a595d
3d42b554
3e331409
bc5fb211
3e003319
3d8e9e11
3c7956ff
bd989073
3e3cbf3d
3db2f66d
be10bf13
bdbad5a2
3d52731c
bc36ab0e
3c6b2bc0
be2bff4a
bd557625
3dab0f07
bdb283b5
be2647a0
3d477808
3df037c4
3de2e2f9
3d4ae278
bd54adc7
bdaf8245
3d0484fb
3deb983e
3e101e96
be060a94
be09ff82
3e232eb5
be0bb8fd
3e11a2b9
bcec36c3
3d018510
3ddbbd6a
3dd3371c
be1fb56a
3e01ec13
bdbfea1a
3e075ba0
bd1f20f3
3dbd1f8e
3c1b77c7
3dbdacaa
3de156c4
3e14c4b6
bdc11503
bd67cf5b
3e2b540a
3e07e450
3e21be71
3e291970
bde1e36a
3e1f5ae4
3dd81020
3e16f966
be239ef1
3d5cdf2c
3e5e91e3
be0a5aa9
be1a667e
3da6a2f5
bd9d55fa
3dc40c92
bdea27d3
be6c69e6
3e1a1ce7
bdd58dee
bdcf3ef8
3c24dcc0
bd016d0b
3decf484
bdb3ecfa
be206bc6
3e3e62f7
3d35d03e
bd50e49e
bcf557dc
3e309e0c
3db24f0e
bd58f4db
3d829128
bb7fd481
bdc29f71
bc55edd3
bdaaf7c1
be0d2ea1
be3f7ed0
3d44bb33
bdd26112
3d9844c9
3d70b38c
3d4f5bde
be15c926
3b5c28a3
3de2c699
bde1c3c9
bd860383
be23c2a6
3b2836c0
3bcf9824
3e2961ed
3d313d3b
be0a5190
3d125c85
bd7dde95
3de048fd
3d86eb70
be1b9517
3cb7f770
be20e95e
3deb46b3
bdcbd219
3d6577e8
be2e8550
be2a4fb8
bcee8fd4
3e3455a9
bd75810d
bde8500f
bd9e4f19
bdd2d8a7
bdd8dd2f
3bc15bfe
3d544472
bd6bf86b
bdfa201e
bc8fafc0
bcb0b65d
3d4aaab3
bc796b35
3d939b54
be2f8ef5
3e048541
be2b1f92
bdcc9ddd
3da42a97
3d886291
3e4b21a9
bdc2e4c5
bda5f478
bdf768be
3e27b975
3cb6cd9d
3cf22f9c
be073b04
3e1b2183
3df8feb2
be1ff1bc
be0004bf
3d90d43a
b984b187
3d24fcf1
be00d932
3dc0b43a
3d69b7ce
3deb191a
bda133db
be196d2d
bbbefec9
3d02387a
be04ae40
be15fdae
3e19c1a6
be1f7125
bd99dae8
be1f4ff8
bc4c7203
bdb4d847
3d98913c
be10fe4a
3e1fcb70
bd6414fe
be010fc3
be05f15e
bc40eaac
bc09d178
3e0fb1d9
3d953019
bdc81587
3d8d4655
3da56d30
bdbe063e
be221094
3ddbb3b5
be33130f
bdc02b33
3d94d28e
ba8d6ea4
bb43d0c0
be0c4a72
3df22df5
3e145882
be0a22ed
3d457982
3e0807e6
3d11284a
3e14e73e
bd5d0991
3e034439
be0c67c4
bd4acf84
be2441d5
bdd785de
3d9a46db
3d4218d7
bd82460e
bcc58253
bdf61f1c
be272418
bdb7f375
be0aafd0
3d566082
3ce4851f
3dd0884d
be2cbbc0
bbd5a468
bdddacd5
3e31c978
3d95bfb6
3d67d819
bdcc15d1
be1bb67b
be1b20f2
3ca97234
bcb69643
3dbf072e
3e1dcaa7
bccc87d3
3de20941
3d922984
be0f41bd
bc388ac8
be3771c2
3b96eaf2
bceb6d57
bd34cd44
3a93749e
3dc6274e
be2b692b
be4be94f
be1009ff
3e046192
be0f94da
bd778ddf
3de4fb3b
3e3517f2
3e13c541
3e2369aa
3e5e00d4
be54f38d
bc630cc4
bd124e29
bdf934a1
be052f65
be2d1383
3aa33ffd
3d8ef13b
bd3217a0
bc37269d
be1caa6d
be30137c
3e10432a
be41a2f0
bdbbb79f
3d43c249
bdcdc3e6
bd46febf
be3837bb
3cc0408f
3dc4ef72
be092da4
be11a898
be23e14a
3ccc4057
3dd420f5
bdae57d3
3e20b6f7
bccb90f4
3d41ea34
3e0df9c9
3e162c1b
bd401ac4
3e388c87
be407efb
3e2faefb
3d51f8da
bd9b7df0
bde64970
bdc540ff
bddbb686
3cb212c1
3ceb0641
3d36db5f
bd6e1c8a
3c387462
bd8be023
be3b448b
bc2e634e
3d896fa1
bdfb55b4
be458360
3d844ee2
bd4f278c
bdfabef3
3d31893b
3db1a5a1
3cec4959
bd31d3e6
3dd7e394
3ce7e025
bcd13232
bdfcda15
3d7116c8
3db3965d
3e0d66f3
bcf1bb46
be21563f
3e036a7f
bbf4d778
bb69ea2c
be15da68
be134809
bceaa40f
3d2cda1c
3dffde3c
3e14489e
be2b8851
be09f0ec
3dd9f4ef
3ddb2891
3e07098e
bc571574
be18f6ef
3e13269f
bbcfd648
bca46f2c
3d4e0b3a
3cba8270
3de974f2
3e2ac805
bdb8c657
be2c953b
3df3ac78
bc699392
3d190cd1
3e07d9ec
be2653a2
3dfe2f49
3d81168d
bd9aa055
bd844a27
bdd6f8d6
be0d213e
bd1b90c3
bdf9cfdb
bdcd88fa
3dc405c3
bc9b5010
3d363068
bd2c971b
3d7feb17
be02b232
3c459d71
be175702
bd9631c9
3e1526b8
bd6d10b2
bde23a80
bce994ce
3e40202d
be077c8d
3b3323a9
3c8ad905
bdab1c33
bcb120da
bdab5b10
3e17766a
3d96b4ff
bdf8433c
3da81503
b8f2ce75
bde62951
bccc3342
3c6480b2
3bb058e6
3e17f1f8
3aba9489
bc46bfe7
be285211
3dcaadd4
bdd404ec
3e3017de
3dfeebef
bd23cce3
bdf78e78
3e2cd1f9
bd67fdb6
bdf0265c
3d935644
3d9cae56
bde28f6d
bda7a0cd
be1e36a0
bdef683e
3e38d317
3dc8dbd9
bdaa5c4f
be1fbe38
bd73d7b3
3b479c6d
bd9f8593
bb2c2ece
be42ef91
bdf5020d
3e23b46a
3de658f3
3b56996a
3ddc67c5
3e2d7356
bc2b7480
3d93d4de
3d03a402
bd6c3b9d
bd5cc66e
3db3d75b
bdad5b3f
be305015
3e2e067a
bd2d5e7b
bd95d3bc
3d6acc68
3d3ebca7
bdd03d91
bab7a7d2
bd992a06
3e233928
3dc824c7
bd4ac01f
bda6b5f8
3da19044
3d50fe78
bd6ba699
3da7cd5f
be223f89
bdc83a09
be36a03c
bdd72dc0
3d927546
3e3b53a3
bdf5c3a4
be0d678c
bdeb85a8
3dcfefca
3e0d3dab
3d7fbcd5
3a010698
be27ea07
be4ea517
3d8a10f1
bdbc01bd
bda405dd
3ad23509
be15ee4d
be103cde
bdf00176
be024edf
ba8f90bc
3ddfa02a
be1bfad7
3c006183
bd8529ef
bdf3ea49
3d4d0d27
bdd8132c
3d85cc2b
be2f94a9
bd95350a
bc4798e6
bd614659
3d54f04a
3c6b6f06
3dffdbce
3c8677b3
3d491498
3c06c763
3e1109df
3e2a3adb
3e325b88
be60f596
be214163
3dc038fb
bd45979c
be16b151
be1e0bc9
3e38b489
bcb4c153
3dc31df0
3a22104c
be3bc736
bdd0c5cf
3d3d3f88
bd3a4072
3d5c92b5
be1758ff
3dc3239d
3d90349c
bd84771c
3d323385
3d433155
be0706b0
be50a2e6
3e051e9e
be0dee36
3dee76f8
bdf1cbbb
be2de4e6
3e1085f8
3e0c6bca
3e209455
3b6bb176
3d749d27
bdb654d5
be163e7a
be2bc042
3cdca29e
bcfae239
be43e5db
3ddc0e01
3b7428b5
3e29b060
bd60e6d4
bc3c735f
be3543b1
3d23f2eb
3d7710de
3d8cdc6a
3dc07759
3d49c58b
be166683
3e2c7402
be092f9b
bd58e4bc
be2ac204
3e012dcf
3e24f4d2
be402e71
3d70a658
3cee458f
3c5d9875
3dfdd876
3e41f502
3e26692a
3d8406d0
3dedce27
bda6977e
3e01da5e
3e0f684b
3d9aad56
bda40ebd
bad1572e
