3e8fba4f
bdff8ae7
3e0f7c6d
3e1ccf43
3e3ab57e
be42bdef
3e9c54a8
3cbf1edc
ba19b6c1
be9e466e
bd46c219
3e8bd699
3d44b6aa
be330cc9
3ea44b8e
be3de1bb
bea7aa32
3e60523e
be972dec
3d8b3632
3e6f1a28
be188092
be9cecff
3e86d8ed
3eaf8f1d
bdf1fcf1
3e032128
3e034389
bd92e442
3e48007c
be8d9f6e
bd62fcb4
be244237
3e785d49
be2f3a49
be3ee005
3d52a109
bdb5be7e
beac5265
3e04fb29
be734f58
3ea9358b
3e108493
3d03ff13
3e094f95
3de71a20
bd8f9d6d
3e1d6a22
3d6c3809
bd0e1995
3d6fcbfd
be849561
3ea3c5df
3ead298e
bdb532cf
be598cea
be97167f
bea6b3e0
bdeb9932
bd9dc9cc
bcbb6f06
3e0f17b7
bea37101
bda22281
3e2c0e28
3d86daae
3d90135c
3e9b90e8
beb20c97
3e4ffeb5
bda11f21
be2d330a
3e2c9bd4
be777b7b
be4ac840
3e17dfa0
bd1c3e7f
be7d2f72
be9a2d95
bb39643d
be4c983d
bdd1239d
3de7465c
3ebab544
be8d5274
3e9e98e1
3dfc651a
3e421dcc
3d38468f
be4bf425
bd910877
bd90bf26
beb5fe91
bd13f37b
be1d6340
be406072
3e979113
bc2dfc69
3ea52e2a
3e71d678
be9b2694
3cf37953
3e0f4abd
3e0f29fc
3e6b3c1d
3e57130b
3dfe20b8
be71ad69
bd2c3fe9
bb2bb5d3
3df9d835
bde61264
3d895cb8
3d9e75b3
3e7e11e9
3d84007f
3dff8b8a
beced514
be541141
3e2d2fd2
3ea7cfac
be06c990
bd34f8c8
3e3c30d0
be38ba43
3e9efb64
bda322ef
3e90ea1d
3caae06b
be401b17
be8f0bf8
3da5c85c
3cda8dcf
bebccd46
bc555ab7
3e78fb9d
bda737f3
3ea91096
bd26b4f8
3be0881d
be0959aa
3e20223c
be90fbad
be944665
bd812a7c
3daacefc
3eac8325
be494f99
3e0d74ab
be244486
bb640b23
be862487
bce5c6d4
3ded1299
bddff78c
bdbd14b6
3e937b8e
be7d82a6
bddd6db7
bd3a0077
3e82cdd9
be740cad
3e067acc
bd929812
be92c26b
bbd04477
3e48f480
be358940
3e81f5f9
be4cf71a
3ecbb88f
bda80e0e
3e4c72cb
bea707ad
3df4e4e0
bc242bd7
be6afb61
be87a34d
3cc4fa9b
be594be0
bcc5aae3
bdeb8172
3d2fb6b2
beafa2c8
be86015f
bdf3b62e
3eb3d7b8
be86ff8d
3ebdc3d0
3de150de
3e3bc875
be8cc4c3
be64a80f
be994b79
3da9fe7d
3ea98fa6
3e68fb2b
bd94e5a8
bda37d83
3e90f07f
be22168b
be5de1fb
3e26d0d4
3d5ab22a
3e9c103d
bec16e18
bd77fa79
be63a03c
3e3e4a33
3d9dc8ac
3df79b41
3df7970c
3ea390a6
bc1bdb10
be3d0b6d
bea0d234
be859a73
bdb6ac76
be71d8ee
3e41eb27
3e6873b1
bd80cecc
be9c314d
be9b51c3
3e5fc6e0
beb553ce
3e4680b0
3e665edb
3eab9d13
3c93ad34
be63af60
bda67467
bea81fb2
3e6e76bc
3b934c08
3d05ab4e
be493958
3da814ab
3d3ee2fb
be3139a0
3d9aad33
bea3a2fe
3d39ff68
bdc736cc
3eb575bc
be861443
be45a552
3daf33cf
bea00c2c
3ea2ee70
be6fd609
be6a9931
bdd00e93
3cb8bee7
bdf38ad0
3dc92684
3eb44c15
be6144fc
bdfd75c3
3cc2f623
bdd11563
3e53b8c6
be209ecb
bd5cd6b9
3d854731
3e166174
3d95fd58
3e21ffad
3cc3b014
3e31d503
3dcb9566
be8911d7
3e2b3072
be4a1f80
3e1eb802
bd0a810f
3c303fec
be1896ed
3e926de1
3c5e2ba5
beb4103d
3e7dfb33
3c01da1a
3e0511ae
be7559ea
be8c0031
3e7e36b0
bdd57b85
3dd69f2e
be69a10e
3d8e1be9
be48d671
be3882c9
bc4e0102
be93b43a
3cd7211c
3e66bf85
3e9b49d2
bbea0f74
3e7d4b4c
be851ae7
3e06dcd2
3e3dbb59
be443c9d
3d7c9d06
3deccbbf
3e11a6e7
3e0cd009
3d68a022
be3483de
be5ef621
3e7cfce8
bd13ae03
be95c6c7
3e67f3d9
be86dfc9
3e5d0a30
be842d42
bccd9f33
3e386bfe
be495efa
3b3261ea
be9f9059
3c4a1ae0
3c6814dc
be8af817
be57dff2
3d91b93f
be0fa127
3e6609c7
3e84a87a
be70e809
3b823ebd
be2b7589
3e8a41f0
be55be3e
3e93720b
3b96eae5
be356259
3df71aef
be816656
be82cff4
be96447f
3db65b08
3ea78ef7
3e7abc83
3e663655
3e7a1260
bce6b0b7
be3ea63d
3e8f5b9a
3d2a91ec
3e203cbf
bec7c302
3a83834d
3e9720e6
3e05efb3
3e98cf00
bdccbddc
bdac59ee
be114e9b
be5b71c7
3e9bc6d0
3e93b6cf
be184fbd
beae0b71
3de68216
3d399074
be8be8f6
be953f93
bc215b5f
3dc765c5
be2f0684
be16c4d9
bd2494d7
bea0945d
bd174667
be80c054
3e5f6b4c
beae3a38
3e669944
be4bc261
3ccc420a
3e1b0d3e
be71943e
3d4a0f24
be07ede2
3b450f68
3d8c4a6a
3d16a49c
bce321d3
be88c0d1
3eacf9e9
3d8b102f
3e67e65c
be52b26b
3eb72107
be14f7bb
bbaa590a
bdaf5b20
be38ad5c
3e9a86a1
3d9498e3
3e68695a
3e07e280
be9741ef
3e02d9f1
be01ad4f
3e1a4431
3d9517d8
3ddc91b7
be004e07
3e655dcc
3ec435f3
3e710105
3ebcc430
bda7c7f3
be6db7f1
be55543a
3e3ce524
3d219226
3ea9bc84
beb7301e
bcd694c2
3beee9c6
3e867c4e
3d8067c2
be84c4b1
3e69337e
3dcd039e
3e5c7308
3e073cd1
be0b292d
be36da38
bda052ee
3c9ffff5
3eb047ac
3d9261e6
bd8206ae
3d896378
3d8c1447
3e963656
be4867e9
be4490f2
bd4ee999
3e926277
3e8f5cfd
bde45384
bce22642
be827fb2
3e755969
3e36951e
3e830233
bdcf5bf1
3b8e810c
3e04140c
bc727c91
3c74abe9
be52b142
be9292fc
3e248c43
be9ed385
beafabe9
3e757182
3e58f898
3eb1df03
bdbd02f1
be9de916
3e9f0f5b
3dea27f3
3ea3bdae
be7fcef1
3e00e7f7
be1193a9
3db56e1e
bdf0575e
3e72fc4a
be0cff7a
be0da046
bec1c6f8
3c816ad6
be4123cd
3dd196b4
be5afa33
bdef55c4
be90e58f
bde09dce
3e64fc65
3e7c1471
3edc4042
3ab6ed4e
bc39bb27
bddd4afc
3da2b627
3e533811
3d010c0c
3e752ff6
3e8d5de3
be91ab8c
bd54c1d1
be804163
bd924f08
be9b4491
be73744d
3ed30776
3deb7015
be8302d2
3df29202
3e3435f1
3dac6086
3d73f1a0
3e7a7df0
3e8c5438
bc01019a
be648ea0
bd9f84ba
3e9654e9
be3600bd
be8ff83b
be943f21
3d5550aa
be3947b4
be80a2b6
bd515aa8
3e9e5d7c
3e9859eb
3e334a2b
3e3ccc92
bdab736c
3e49d34e
3d87a970
bd7258de
3e6fb5d4
bcb36fbd
3dbb862b
3e0e7cb3
3cb068de
be86cceb
bca802a9
3b262464
3de57cd1
bdaa02c4
bc73d7a5
3e9da512
3c5b3a36
be98d306
3e168d34
3da6e823
3d71c9e5
3e4081ec
be8a58ca
3e6b6128
be66d93c
be79fc9e
3a3ef3ba
3ea049ff
3e875454
bea41e58
be4ad956
3e59d5ab
3e769593
be9f69d6
3d429db3
3e460dc0
3e73391f
be04f81b
bc9555ab
3e9b0223
bdd6db85
3d1ff0e2
be6e4dcb
be201b46
bd6c8ee1
3dbce12b
be71093b
be51112b
bceddded
3d44e89e
3e3e7ce3
3e0304f6
bec19e4f
3e5350a3
be38728f
bd8d2c7b
3eab9b15
be12a3b6
3da335f9
bea1b317
3ed937ea
be88c731
3e8b0564
3dfd353e
3e831877
3e8667ab
be18d5e3
3e4d7c1f
3e919d9a
be9639cb
be206575
bd3a09d3
3dee2cd0
bdecb77e
3d241589
3dd06004
3e1f390f
bea4c7ac
bdc9f875
3eda8e91
be773665
be36a338
3e3f2dc1
3e000f5f
3eaed556
bd4bf0d4
3c4ad5a0
bea35a33
be95bacd
be67f0a1
bde7e137
3e4f60bd
3e8be3c7
3e2c7278
bd159663
3dbb5e9d
bd9f36ac
3ebbffc4
be4f1e76
3e8bd6a2
bceadfdc
bd57fa14
3cb084f5
3e223090
bdfb4492
bddd0f97
3e4f2f5e
be8e2a7e
be2bf49c
bdb962f5
3ce34956
3eafec76
3d5642d5
bebbe205
be45e853
3d57f37a
be8237b2
3ec00e36
be2933a8
bd98ac1a
3df31830
be1087a4
be5140bb
3dc04568
be03b77e
bd5d2ab4
3dd5ee89
be07485e
bca828af
be8e9894
be07ce4e
be7c75ed
3e8087a9
be3849cf
beb6caec
3e8d0f38
3e400720
3e4949d4
bdbc89fb
3e31bb85
3d800fae
3e5be45c
be8138d6
bdafc180
3e904c58
3d26be84
3e54d19b
3e5dc012
be4c3616
3d98ccd6
be6401f8
be56b256
3bdc0fed
bd1e4acc
be003f9b
3e17107a
bd83c7c9
bdc5887a
bde156b9
3c364589
3d6ead0c
3e6b3b81
3e6b5a96
be6dc789
be24f3bd
3e8d660b
be1cec35
3ed4b55a
3e99f15b
bcf55d9d
be447b70
bdba390a
be24d092
3e66876f
3e300a11
beaf0c20
3db5d519
be205d32
3e4dffd9
3e0afc86
3df04764
bd9ae3a9
3e7d303a
3c7b7d23
3e8b69c9
3d2968d2
be7e6c1c
3e63f5ef
3ea8afd2
3d2ee0c0
be76681e
3dede079
3d644638
be97bfd2
be41d4c4
bebcd38f
3eb23dfe
3e7f63ea
3d74a9f9
be60ab5e
3dd76dbc
beb44a49
be205d33
3e10efd1
be5468af
3e9211b3
3e10441e
bc981713
bd8d8de1
3e1a4693
be782443
be230c76
3d9d2c6c
3e8551b8
3e24f208
be1315f2
3e8f7ab2
3e0c5f52
3e14363e
be57baac
be67f4c4
3e9fd89a
3eb3671c
be6440c5
3e7b8c77
3e617af8
be90c6c8
3da89047
be37152e
be63d216
3e487293
be9c7578
3e2977fd
3e9677b6
be6540d3
bc4522aa
be9ff810
3e5d3f69
be89e74d
bd0b2079
3ea76b69
be780be5
be41f46b
bce10006
3eba5145
be8d9c1e
3e05efe3
3b62cee4
3da6d911
3e1aabf3
3e298462
beac0243
3e8d14cd
3d07c7b0
bbb7734a
3dbf74ce
be599543
3dab8641
be89819d
3e8f53e6
be29b0ba
bea5a290
be5bcf19
be952e90
be9b1293
be3d44c6
be48189e
3e69dba2
bde0d496
3d60ef19
3e054ca8
3d92b897
be1bdeb8
bdc82134
beac11f6
3c27f17e
bdba9718
3e7234df
be7f071f
be47cd57
3e0f246e
baf83f1a
3e54e898
3e2ee558
3e557f2b
3dfd3ddd
3e523942
be905ce0
3d97ee50
be5a6abf
bbc1312f
be7902c4
be9aee86
be8e3a37
3dac4822
3db560b4
3e9df8f1
3e066ef9
3d96bf67
3e614616
3e2eb34c
3c9f8100
be6b627b
3e429ec8
be467b77
3e91d8aa
3db89ec2
be380aec
beaf1a12
3cb82a5e
be15b459
3e101a3e
